/**
  ******************************************************************************
  * @file    network_data_params.c
  * @author  AST Embedded Analytics Research Platform
  * @date    Sat Feb  3 14:07:28 2024
  * @brief   AI Tool Automatic Code Generator for Embedded NN computing
  ******************************************************************************
  * Copyright (c) 2024 STMicroelectronics.
  * All rights reserved.
  *
  * This software is licensed under terms that can be found in the LICENSE file
  * in the root directory of this software component.
  * If no LICENSE file comes with this software, it is provided AS-IS.
  ******************************************************************************
  */

#include "network_data_params.h"


/**  Activations Section  ****************************************************/
ai_handle g_network_activations_table[1 + 2] = {
  AI_HANDLE_PTR(AI_MAGIC_MARKER),
  AI_HANDLE_PTR(NULL),
  AI_HANDLE_PTR(AI_MAGIC_MARKER),
};




/**  Weights Section  ********************************************************/
AI_ALIGNED(32)
const ai_u64 s_network_weights_array_u64[2258] = {
  0xbda3539f3c62df1bU, 0xbe039c8bbd3e1b34U, 0xbdcd2e1d3d1c49d5U, 0xbce909fabd31937aU,
  0x3dbe0b17bd449469U, 0xbde13e24be8f0caaU, 0xbe8c7463be33009aU, 0xbe5d66f0be8c0554U,
  0xbdb4804f3dbdd47cU, 0xbd60c8f83ca23780U, 0x3db359ca3d8a70a9U, 0xbdd67ae1bd8f7a58U,
  0x3e21751bbe243a07U, 0xbe301b3fbded2ba4U, 0xbe0de3b9bd4e5563U, 0xbca02e0fbe3e3e48U,
  0xbe60c3a63d47282bU, 0xbe1f8533be35b801U, 0xbca659e03dcec69fU, 0x3de814acbe2d7383U,
  0xbd966882be52de1bU, 0xbd8d9f02be381f4dU, 0xbdef26fa3e12fe1dU, 0x3caa09abbe2c3904U,
  0xbda533eebe07e81fU, 0xbda1e45ebe3e50beU, 0x3dc10f633c649ee8U, 0xbe2f1bf63cbb8189U,
  0xbdda4a913d8d6752U, 0xbe7f1cce3ba8cd16U, 0xbd19f275bdabc360U, 0x3d54f2ad3d799f7dU,
  0x3e0dfae2be4bf55cU, 0xbe01597c3e1e0320U, 0xbe3423103dcd10d0U, 0xbd5c2e91bda8889fU,
  0xbd87b3803da2d232U, 0x3e0c189cbe269c33U, 0x3d809cd53e2a6848U, 0x3e0749703e52cb52U,
  0x3d9dcdf4bc1b0f6bU, 0x3d9164a73e1b2bceU, 0xbb3d33583c9f2465U, 0xbd6615993c1a2283U,
  0x3c39d1ddbda2c938U, 0x3e723a85be305589U, 0xbcfdad893e172344U, 0x3e70d34d3d828593U,
  0x3ccf1983be0d38d5U, 0xbd3238ea3e0e5f43U, 0xbdd0be18be079d08U, 0x3da143f1be5ead10U,
  0xbbfac4333db50d8cU, 0xbe4590e7be7c7044U, 0xbe8c53ee3c525abcU, 0xbe43e9b5be7f9e80U,
  0x3d181918bcca7e44U, 0x3cc730963dd79401U, 0xbd5e4a193dadbd94U, 0x3d3bcb933e2a6642U,
  0xbc908159bdbe39beU, 0xbd45d859be318125U, 0x3cd32b433dbff926U, 0xbe7526c03de8606dU,
  0xbbb7dd993ddafcdfU, 0x3d64d78a3d0dd7a8U, 0x3dd7ed83be5e6f0dU, 0x3db1a5c83e5fbc4fU,
  0x3e2ff237bcb9e890U, 0xbe4eae72bda907c8U, 0xbe44a5e03c48f5a6U, 0x3db76477bb748a89U,
  0xbd0cf1053e2d0df6U, 0x3e06c6a0be52d49bU, 0x3df112e2bce9c870U, 0xbb7f429dbb07ac2aU,
  0xbdb88800bda6752eU, 0xbdab0df03c895e80U, 0xbd481a9c3cb36467U, 0xbb81ed69be55430cU,
  0x3d4778123df23845U, 0xbd410261bc592ac9U, 0xbc113669be691ebaU, 0xbda71ac13e71ba17U,
  0x3dde550d3c6816dcU, 0xbcc455cdbd262604U, 0xbe8acfd8be274842U, 0xbe18deb13c0eeebfU,
  0xbe20a4293e412610U, 0x3c34ad53bd40a76cU, 0xbe4728a13dfa4e15U, 0xbe16da8d3c88c32dU,
  0x3d80989c3e2e3087U, 0xbe357e673d493007U, 0xbdefb990bd565085U, 0xbe51718dbe369f48U,
  0x3d988c0c3e052fa4U, 0xbde8561ebe083440U, 0x3c1764d43cf511a1U, 0x3dfc0320bddbf92fU,
  0xbd82ca1abdbb8323U, 0x3d82f162be1246c7U, 0xbcf5857cbe21ae06U, 0xbe59005abd8b61d7U,
  0x3d4482df3e07a40aU, 0x3e3061adbe1694a2U, 0x3d7e486cbd6f4be8U, 0xbd8d4a69bdca0b8cU,
  0xbe2ab8cc3e233653U, 0xbc01e4a6bc33fcf9U, 0xbe3373a73d110f24U, 0x3d824ee63e07d48eU,
  0xbe0c3f18bd8d443cU, 0x3c22ce993c17cae9U, 0x3dc7a8acbdc4c2cdU, 0xbcecb4fb3e070395U,
  0x3df85af4be619558U, 0xbe1befeabd2507f1U, 0xbe4e1358be139c82U, 0x3d4c778cbe7e9ba4U,
  0x3ca129e33dce312eU, 0xbd80d648be4539efU, 0xbdef536f3abf8887U, 0xbe1a2d89be3c0f8dU,
  0xbd55123e3e7860efU, 0x3a9dcf0d3d310b3eU, 0xbe4714583d0188dcU, 0xbddb68513d76a940U,
  0xbdfdb7e13e5fe5abU, 0x3e70c6793cf2f41dU, 0xba4f6ff5bc7ba337U, 0xbd302142bca77308U,
  0x3df56110be25fb71U, 0x3c440e653d49dedfU, 0xbe40d109be131174U, 0x3d5fcedebe476c6bU,
  0xbc34d9fe3e061ff6U, 0xbe4126cf3cc3e011U, 0xbe4edf8fbdf284c4U, 0xbd4707f93d22e384U,
  0x3dccb64fbd74832dU, 0xbe256835bcee0decU, 0x3de1eedbbe4ab6e1U, 0x3d6d2aae3d3428eeU,
  0xbe06726a3e558120U, 0x3d67ee86be6b93f4U, 0xbdcb2d423d76b0c8U, 0xbd93141abdc53d64U,
  0x3e440a4bbd29c70fU, 0xbe77cdbcbacdfe99U, 0xbe093cdd3d651317U, 0xbe115ae1be3511eaU,
  0x3d844a21be40ea3eU, 0x3e06e73ebe0a876bU, 0xbc3e301c3c5aa46cU, 0xbd9e1ca9be2066ccU,
  0x3e0510a83d962a30U, 0xbe6235093ddc845cU, 0x3dd2ba7cbdfc1e97U, 0x3db8a8eebdbb4bccU,
  0x3ddd151c3db19e0cU, 0xbcc1bc6ebdb58698U, 0x3d32e9da3d5a23dbU, 0x3db4725f3dda952eU,
  0x3c881908be251aa7U, 0x3d983a0b3e069fe5U, 0xbe0db1743dbd2526U, 0xbceb716abe8469b4U,
  0xbdfeffd0bcd6a758U, 0x3d991c5f3d86fc61U, 0x3d3567c0bb112618U, 0x3e1832233e0b9a5fU,
  0xbe0f146e3e1c1dc8U, 0x3d95c3c7bc9c25b3U, 0xbe114076bd92d07bU, 0xbd86af213d0ae93cU,
  0x3de047a5bd5eb14dU, 0x3d0d1fc5be3a4ef0U, 0xbe502b8b3db5530bU, 0xbcc7335e3e1a6524U,
  0x3e06f5a73d0736b1U, 0x3d4e48283de64aa3U, 0x3d3ac6083d0d0714U, 0x3da9274a3d0c9b5fU,
  0x3e056dbdbd5683f2U, 0x3d24c180be105c83U, 0xbd0b133abe5c1129U, 0x3ce51001bd820ebeU,
  0xbb66aaf1bdc3b218U, 0x3e25d420bd759022U, 0xbdccbaff3d6e350dU, 0x3ca36449be5e6076U,
  0x3b2cec213db06905U, 0x3df566a8bd7a6fc2U, 0x3e5f19a2bc762d76U, 0x3dcce9663e0472baU,
  0xba9dfd79be111296U, 0xbe37878d3d1c7632U, 0xbe231045be547dfcU, 0xbdec9771bd504689U,
  0xbc4986ffbdd84b0dU, 0x3d7d30c3be742b3aU, 0xbe1a3abe3de0f2eeU, 0x3cd3626fbd2a647bU,
  0xbd4e874e3e02587eU, 0x3d914eb23e02b9dfU, 0x3cc74268bca80903U, 0xbd0231fe3dc4a0a3U,
  0xbd19499bbc883274U, 0x3dd3233dbdee6162U, 0xbe53bb38bd7f4aafU, 0x3dc8a6babdca59eaU,
  0x3d2944b33ddb9e28U, 0xbda340d7bd57e889U, 0xbd6127343daa7c79U, 0x3d6ad9af3e25ef01U,
  0xbcdfd328bdacfd73U, 0xbe140639be5e948dU, 0x3d58c6debe0b1dcdU, 0xbe217101be3b7861U,
  0x3d0897d1be398c49U, 0xbd94d6243d995dfdU, 0x3ca5aa133bfc75e9U, 0x3d6fb39dbe3fbf10U,
  0xbe211ed4bdc28892U, 0xbda9ba393b2076acU, 0x3cd4d8febe43e604U, 0x3de8fe5d3e4edbf5U,
  0x3e8291a4bd8c2b73U, 0xbdd1a5cd3e098a16U, 0xbcc6d088bcdfbcc3U, 0xbe52e3ff3dca00ceU,
  0xbe06a78c3d2c0714U, 0xbe842c73bcba3798U, 0xbd684d0abd20b817U, 0xbce674ebbda97310U,
  0x3ccc53e13da2417aU, 0xbe62d4e13d9f47a3U, 0xbd1c22853d3636d3U, 0xbe662e31bcdf3e6aU,
  0x3dc330b73de33382U, 0x3e14e943bd3ff63fU, 0xbdff298cbd18c296U, 0x3e035b603da0cca1U,
  0x3e2c8a1b3de1ebb6U, 0xbdfc66943cb0f488U, 0x3d131ac9bc1a4ebdU, 0xbe15ae403d08c756U,
  0x3db3a746bd15401bU, 0x3d7a7dd2bd0504f9U, 0xbcefd4123bd3f4b2U, 0xbdb3a9283decd498U,
  0xbd0062693d36ced2U, 0xbd4417503d04180eU, 0x3c40c3b13d9eee53U, 0xbd571e1db8d6af0aU,
  0xbd534f023c700310U, 0xbcd29d55be27a950U, 0x3e360435ba9fcb5aU, 0x3d693c40be04b41dU,
  0x3e1b7e30be1160b5U, 0xbd62d1e5bd09cf8aU, 0xbe535749bc053b3aU, 0x3d8c9cfebcdd9cd2U,
  0xbd842541be09618dU, 0xbd364cefbe28a74eU, 0xbe14c9acbe4ab885U, 0xbe3a9f7e3db8d37fU,
  0x3dafcbf1bd62657cU, 0xbb7a73423db90583U, 0xbe37183a3d88b64cU, 0x3e04609b3d7b9239U,
  0x3e28c6db3c90d644U, 0xbe465de0bcb0d456U, 0x3dee6dabbbd25487U, 0x3de5d079bafe0e5fU,
  0x3e8340a43e272075U, 0x3d21e658bd2c5703U, 0xbda15f25bc5cc7feU, 0xbe062c293e29b5e9U,
  0xbe7bf395be18399dU, 0xbddd8c54bd742c6cU, 0x3b0f83cbbe10ad92U, 0xbe51cab8be46fb96U,
  0x3c00a19c3dae98cfU, 0xbe521f823d52dd53U, 0xbe566fad3e3a1733U, 0xbe8e9e5abcd1bbfaU,
  0x3d0a86733dbe9afbU, 0xbd1c4028bd21832dU, 0x3dc67d60bd61a2ceU, 0x3c75d78b3de38800U,
  0x3b5b81473c9c2c53U, 0xbe5dad483e6023dfU, 0xbe651e103c4bc959U, 0xbe4a60a5be682067U,
  0xbe2ab2ba3b8b0d7bU, 0xbcbd9c7abcd08f56U, 0xbb06b3eabcc1a3fbU, 0xbe66a4b4bd9e75a7U,
  0xbc1166da3be389abU, 0xbe87402a3e4fe977U, 0xbc9f8362bdaae4a4U, 0xbdc9ad0ebe1888d2U,
  0xbd738b603df7392aU, 0x3e5e7a09bd892ec3U, 0x3c1ef1eabe53a5acU, 0xbcee6e833d8e5cbaU,
  0x3e40530c3d21ea1aU, 0xbe5272353e4debb3U, 0xbe65a81b3e0bf84dU, 0x3db28e34be16f2a8U,
  0xbd913bd6bcb06d90U, 0xbdc90d5abd83feeaU, 0xbe3b53773de3e221U, 0x3daab8823e1198ddU,
  0xbd758a06bb9baaafU, 0xbe2952333de0788eU, 0xbc9bbac6be5f2736U, 0xbdb24aebbe248263U,
  0x3ddb69863e4438ddU, 0x3df40b13bd4d2701U, 0xbe65686cbe0db27bU, 0x3dab68d13ca4960aU,
  0xbd06f7aebdae0434U, 0xbd4c3d783e099d37U, 0x3d259c213cedc837U, 0x3c07cbf13d4c1dbfU,
  0xbd8b233b3d918a36U, 0xbd36c2ec3d89fd01U, 0xbe0e97923df492dbU, 0xbe597723be018174U,
  0xbe38e51a3e03399bU, 0x3dd1ae46bdc3fb2eU, 0x3d3b24e93e287173U, 0xbe1893623bd53770U,
  0xbb46a89b3e403634U, 0xbdcdb8ffbe0a8d09U, 0xbdfeab003d209e88U, 0x3e40bcdd3d426203U,
  0x3e31a929bcab8151U, 0xbdeeea02bd17e748U, 0xbe48b1dc3d3fb8e6U, 0x3d64813d3dba5ff5U,
  0x3ddbeb3a3cbaeee4U, 0xbe15a55ebdde1256U, 0xbe6226253c287e3eU, 0xbe3dce9a3dc4e0b5U,
  0xbdaa41bebe346738U, 0xbe15b3efbdb48bcdU, 0x3c19e33fbcad00e3U, 0xbd89761a3dfd3418U,
  0xbc209ee13d6a2622U, 0xbdd9ec65be6a6c26U, 0x3b27c7ed3ddb015aU, 0xbcc0a6663e052202U,
  0x3e3180833e617379U, 0xbdf142d6bde6d268U, 0x3d24e77f3e6a0e02U, 0xbdc62973bc1ea81cU,
  0x3d5d9514be75959aU, 0xbe57f8703bfe543fU, 0xbe4ae5c8bd19f6b0U, 0xbe06a176be038c87U,
  0xbe3c8847bcc5ee5eU, 0xbe0389afbe021610U, 0xbe0a083ebdb64418U, 0xbe845d66be84c013U,
  0xbdf8d7a03de2dceaU, 0x3dda9117bc445d3eU, 0xbe2df5d33e338947U, 0x3e14d07c3808b9a6U,
  0xbe09bad53e26457aU, 0x3c4427d23e045c69U, 0xbe423b8abde890b3U, 0xbc3efeeebd1a5858U,
  0x3e04d7c4be567ffdU, 0x3b795f5f3dd924bdU, 0xbe321cdb3d561e18U, 0x3d0cb8283cdb8602U,
  0xbd78a314bd28205fU, 0xbe22fb4a3dda90a4U, 0x3cc06ee53e2f54a4U, 0xbdc26ecbbd9704aeU,
  0x3e2c8da63dc000d8U, 0x3dcfac723da0a8c7U, 0x3d118c47bdb781d0U, 0xbd22d3543df90ce3U,
  0x3deaedd03e293a74U, 0xbe40e296be5335c7U, 0xbe4f41763d82bf7cU, 0x3d5cf8653e3471caU,
  0xbe1918a0bdf92185U, 0xbc9a529bbcc63ea7U, 0xbd134113bd5690f6U, 0xbd1dad483d9fdfe3U,
  0xbbc4ce733e05d0c1U, 0xbdce02913d309a2cU, 0xbe442ae03e546101U, 0x3d5c9865be198939U,
  0x3e5eeec23dcb80c1U, 0xbc4555e73e1d121fU, 0xbe2aa0053cb8a43bU, 0x3e371aa6be3fc80aU,
  0x3df25d233e30a899U, 0xbdaa0d4fbbd5a467U, 0xbd7b9edf3e0531a5U, 0xbe1a77df3df779e5U,
  0xbdf641e1be27f235U, 0xbd2899f73d724ca1U, 0xbc3a51e5be59378eU, 0xbe570c3bbe3117f5U,
  0xbd82d1933da1e82fU, 0x3e025825be316246U, 0x3d8c8db1bc7cd952U, 0xbe2ab6ba3e013bb5U,
  0x3e0502f33ccfb015U, 0x3da1715ebc861c04U, 0xbe22a7283dce5ab6U, 0xbd7de468bd74a229U,
  0xbe15ab803e4d0702U, 0xbdeebc6abdfb0afcU, 0xbe113d1f3e5dab3fU, 0x3e05f26bbe10dbafU,
  0xbcb82a5cbbec3e01U, 0x3daea269bcd1550cU, 0x3df7f023be16e48fU, 0xbd46ce70bdda75feU,
  0x3d8eb8b93df25a6aU, 0x3d6b76e1be146eccU, 0x3dc44dc33e396249U, 0x3ddede9d3c6e3e2bU,
  0xbb9f93923ddb53deU, 0xbdb90c4ebc95601aU, 0xbe1c80323c084955U, 0xbce8c2653e1a864fU,
  0x3e22f226bd642ba9U, 0x3db608703e28a8f6U, 0xbe3d91efbdec1189U, 0x3d212542be190c46U,
  0x3d168797be029fceU, 0xbc173c15bdba09d5U, 0xbd7c2811bd3ce964U, 0x3a271b8a3d8ac66aU,
  0x3e02422cbdebd53eU, 0xbd6a9e9f3da70ed1U, 0xbdcc583dbde8508bU, 0x3c6c7278be1532deU,
  0xbe1fea423e51a3d6U, 0xbdbd8e5ebdd3fb03U, 0x3e3d58e9be707451U, 0x3e6623083e38cb08U,
  0x3dc6eced3d9f0152U, 0xbe139c053d9defbfU, 0x3c028dd2bdefecb4U, 0x3c7ba3adbba198f4U,
  0xbd07383f3ca9cfa6U, 0xbd9b93fabe126a48U, 0xbe723f05bdc4cfa3U, 0x3de27bc2bd08fd02U,
  0xbe4390bf3bbd3698U, 0xbe8526423e6a696cU, 0xbdf3a41e3c89ed22U, 0xbe050100bd8d6889U,
  0x3e073f883e0bb0e3U, 0x3e04a9273dd32fc0U, 0xbcd80756be38b10bU, 0x3d7b40e7be39debfU,
  0xbc795b373db4369eU, 0xbdc540883d8838fbU, 0xbd521a03bc1f266dU, 0xbe306361bde27c05U,
  0x3e02c18ebd190918U, 0x3db267ee3dd6c937U, 0xbde86a3b3d8b3970U, 0xbd92fb513d093ba7U,
  0x3da1691abd1a7d3fU, 0x3b1bad56be09ce9cU, 0xbe09bc283e3cba10U, 0x3ba12ea3bddbafaeU,
  0x3ddd66f63e6d093aU, 0xbdedaa6abe015c4bU, 0x3e3b9813bddf69b5U, 0x3dcb67723b1155bfU,
  0xbd91f0e33dce5ce1U, 0x3b458081bdfed22eU, 0xbd1ebc8c3de99af2U, 0x3d9c0d2ebd29b653U,
  0xbd1357a7bd70c4edU, 0xbd9795023dba65a5U, 0x3dc369633e1e07f0U, 0x3b1c061ebd888e02U,
  0xbe2efa5b3cb75badU, 0x3abff3213e333149U, 0xbd71ebfe3d107886U, 0xbd18a7fd3d02cdaeU,
  0x3d7f6f143e75059fU, 0xbd12fb14bd783959U, 0x3cf9bed43dd54cf1U, 0xbdaf25003d43bd96U,
  0x3e1f0deb3e09724aU, 0x3d219eaabd9c30daU, 0x3cd6b66b3e13d991U, 0x3da22f90bd94eed0U,
  0x3da3b123bdadde35U, 0xbdb3f422bd899d19U, 0xbe82f6ff3e1d52edU, 0xbd456f203da1b14bU,
  0xbc1251df3c969305U, 0xbde15c40bda4f006U, 0xbdd9eea2bc8da26dU, 0xbe883d4abe4e7613U,
  0x3d2216793e6dc953U, 0x3e3e6638babc763eU, 0x3e48f296bcf884eaU, 0x3d7cc01e3e02244aU,
  0xbd4ffa29bdc016d8U, 0xbe43dba03e4a33c5U, 0xbdc6f212be489b76U, 0x3cff78ddbdbbf993U,
  0xbd86efd53d4051d8U, 0x3e03e30fbd9c4b28U, 0xbe1cb6b2be35a000U, 0xbdc6abd3bcd725b7U,
  0x3d9eb4c63d72514aU, 0xbe5683d33e1ee311U, 0x3d922fd93d199165U, 0x3c90dfbbbe639ddcU,
  0xbd0712acbe159feaU, 0x3d8fe0e93d2e7414U, 0x3c0695a7bd80b8dcU, 0xbcd1dd903e1bd82cU,
  0xbde92aa63e00eb4fU, 0x3e290e84bd1dc97aU, 0x3aedbc473dd9ced3U, 0x3d9e67b13dcf449cU,
  0xbe080bb3bccb4a71U, 0x3d073e72bd93984fU, 0xbdb374cfbd55ac85U, 0xbe3d9f83bdb86513U,
  0x3d1dd51b3df60d46U, 0x3d4bc261be16f616U, 0xba3fd6083e259feeU, 0x3dd979b53dbdf17fU,
  0xbc1e0a933e0348c2U, 0x3dee23343dcac288U, 0xbd8a473d3e007fbeU, 0xbe31f9143d4cababU,
  0xbe3ae738bd9a2a5bU, 0xbd227262bdda7e0bU, 0x3e274c1cbe30fd94U, 0xbe3d3d91bb9c7d63U,
  0xbe480fd2bca11a52U, 0x3c81f3cebd76224fU, 0x3cc4df92bdd3366eU, 0xbd74acea3cf250e5U,
  0x3dec6536be14272aU, 0xbdd687a1bd26b122U, 0x3e28d3debd1bd9ceU, 0x3d246ca3bde0c609U,
  0x3e28c949bcc6d225U, 0x3e44dd36bd89ab65U, 0x3d3fdb95bdb90515U, 0x3e5462a63df1e5c3U,
  0xbbc8c1cebd0c5039U, 0x3da71b1b3d1b2fc4U, 0xbe3bd112bb9d8bd5U, 0xbde03d223d658307U,
  0xbe20c436bdacdaa5U, 0xbd5e3ca8be288e36U, 0xbd973a1fbe0e6968U, 0xbdbfdd91be41cd1cU,
  0xbd05f2253bb0c72bU, 0xbdc8ba5a3df9dbc4U, 0xbcbf7e3dbe0d64d5U, 0xbcd88b15bd363057U,
  0x3d7f4fe73d9c9d16U, 0x3c990d6cbd990fbbU, 0x3e4c210ebe075dd9U, 0xbd81a59d3ca712c8U,
  0x3e0d50d53d3fcd7dU, 0xbda750773e353959U, 0xbe677e2abd9974a8U, 0xbe53d8d7bd585358U,
  0xbe0372693e0b8520U, 0x3e1954e3be653773U, 0xbdefbdaf3e03ee1eU, 0x3defd9d73e0d3b83U,
  0x3d9956cabd4693beU, 0xbe2d2481bd84bbc1U, 0xbdefcf1bbda087e3U, 0x3ab48630bdc3daa7U,
  0xbd8294053db35638U, 0x3e04c791be6352ddU, 0xbd886d9e3cd74778U, 0x3d1fd3be3e3f795bU,
  0x3e64585ebe702d2fU, 0xbe3135adbd596611U, 0xbdcf234ebe19d77cU, 0xbe3ad736be2faab5U,
  0xbe7276d6bcd9a1deU, 0xbe26784fbe3e3349U, 0xbc8ab8763c9bd9e6U, 0xbe25e53a3c5e4eb9U,
  0xbd63c91f3d99191eU, 0xbdc2e1bc3e04be48U, 0xbd9a56003df63d9aU, 0x3d44d770bdace1d6U,
  0x3dcca9fc3d92100aU, 0x3c1dded8bd5618b6U, 0x3ca122543d963003U, 0xbd63ca903e4de061U,
  0xbe0206303ca021c4U, 0xbe37f211bd951609U, 0xbe2523a63e041447U, 0x3c9caf36bdce1565U,
  0x3e13082f3de7c74dU, 0xbe1f2604bd8063edU, 0xbdc53fb63c9b4f99U, 0xbb59dad6bdcac475U,
  0xbe3755ba3dae54fbU, 0x3e0769c43e2774a8U, 0x3c8755c1bce21c25U, 0xbda04fcabe3d27f3U,
  0xbe67a7993e36e688U, 0x3e435487be3e0733U, 0xbcd28a50bdfb25a4U, 0xbdd486c23e8088ebU,
  0x3e149a7bbe18f0d3U, 0xbce2b14a3ddbc956U, 0xbd71096abe56d4c3U, 0x3d2969f5be7aedccU,
  0xbe0c7c073de6b1b9U, 0x3dc5bbdbbd08e969U, 0xbe580168bdac815cU, 0xbdc211d03da257aaU,
  0xbd50d1b43b22c98eU, 0xbd1d1233bca0df05U, 0xbcab47f1be66bfe7U, 0xbe1fa7a0be6911fdU,
  0x3dac95243e3603fbU, 0x3d51bb50be55b184U, 0x3dffc612be2c2306U, 0x3e03b6cf3e577830U,
  0x3d1db2123c0abc7bU, 0x3dae836b3dfe8f83U, 0xbe21e06f3d03794bU, 0x3ddaeb7ebdd11788U,
  0xbe60f56d3d1171e0U, 0xbd5db47cbe35dedbU, 0xbd944fc03c56d5ceU, 0x3d30e4223e0f66e3U,
  0xbe1d1f813e0d0f9cU, 0xbde444c0bd588cd4U, 0x3d907e253da33e21U, 0xbe5888633d9ec2baU,
  0xbd6a370dbde6a1b8U, 0xbc072f5cbe15d65dU, 0x3e1d65e13dc7f7e2U, 0x3e21910c3d99ab8bU,
  0x3db987ed3d74a2bfU, 0xbb4e5d573dbe5a8bU, 0x3cf8cfee3e06f90aU, 0xbdc84770be2d62a0U,
  0x3d6e9b46bc00f638U, 0x3d90a13bbe1ecbd9U, 0x3d805521be422103U, 0x3dcb5ef2bc286980U,
  0x3d8559983e19aeaaU, 0x3cfd35163df4c256U, 0x3deba218be208db3U, 0xbe5cd64bbd2876fdU,
  0xbe0fab413e22ee74U, 0x3e69a542bc1359d7U, 0xbdee9378be781fd8U, 0x3cb8cae5bda10c3fU,
  0x3e4b98c8be218cb2U, 0xbe3cf6453e4e1030U, 0xbe7870dd3dd7b736U, 0x3d5fde0dbe3732fcU,
  0xbda58c24bdf5d950U, 0x3e023261bd25ce51U, 0xbe5bf6a4bd3b4499U, 0xbc9691f83d92fe7aU,
  0xbe6f0bb33e2c0a12U, 0xbe18e1153e6db0b8U, 0x3e1b2c2abda83c57U, 0xbde43376be43e9ecU,
  0x3e3176013da252e9U, 0x3db770d03cf4c196U, 0xbd4954c6bc6bf541U, 0xbda823c3bd91a394U,
  0xbdad7ff33dec569eU, 0xbd880f4cbe0b3763U, 0xbd9764453daeee57U, 0xbd7c2da53e502a50U,
  0x3defbe3cbdfa9070U, 0x3be7b50bbe5d64f1U, 0xbdd031233d31e695U, 0xbe5d6e78be064539U,
  0xbca38910bda36527U, 0x3da37c39bdf5c381U, 0xbdd7f2323e248a2bU, 0x3dcba88cbe164236U,
  0x3c2915b8bcb0a933U, 0x3d8686683d18e0ebU, 0x3dbd4d88be85ed50U, 0x3deb5dda3d8f11f6U,
  0x3bd95a7a3ce1f8e8U, 0x3c6c46b03e04ae8eU, 0xbe3bf157bdd3dba1U, 0xbe3ece5fbd624a1fU,
  0xbdd8efae3d9a8819U, 0xbd312b293b0e752bU, 0x3a554686bdec7899U, 0xbdec8abfbe3a6ee6U,
  0xbbc034e03e7a5a45U, 0x3c76def13d529227U, 0xbe46c447be80be36U, 0xbda520bfbd247a7dU,
  0x3e535760bd8cb07fU, 0x3e083d59be17ba5fU, 0xbe0ab8033e1937cfU, 0x3d65f0e4bdf2ad3dU,
  0x3b2d64003e30e22cU, 0x3c9967ebbe46c81cU, 0x3d9728523de69cf6U, 0xbe39310ebd7203c2U,
  0xbc1a588cbe3062bdU, 0xbe3e5f973de0166bU, 0xbd1275ed3d8b1115U, 0xbdc9418ebb82afb8U,
  0x3d4d6b3fbd42cfd7U, 0xbd8cac823c293274U, 0xbe5f36173d923d64U, 0x3da41600bdc9c34eU,
  0x3d079da13dd7572fU, 0x3e037856be0ec43aU, 0x3e3864e23db7deb6U, 0x3e1ba9d83e1637e5U,
  0x3d0be13bbe443b1aU, 0xbd2da6513e383233U, 0xbe2bc4e1bd7e5c7dU, 0xbe5a7c05bd7de7e2U,
  0xbd544733be312ca9U, 0x3d32d3df3e074c35U, 0xbe6d3675bd33c7d0U, 0x3b7a6624be378150U,
  0xbd4c1cc13d92870aU, 0xbe60c6dfbdef1514U, 0xbe8b6efebb891ff7U, 0x3d16d6d4be3d52d2U,
  0x3d9035f53d3f5814U, 0x3e452acd3d6b4cecU, 0xbdf5844dbe2ceab2U, 0x3d75608bbd902c35U,
  0x3cfe388a3d3d6b5dU, 0xbe3a5da7bc98ffd2U, 0xbcf341233d097e9fU, 0x3df6ba2fbe5c932aU,
  0xbc75658c3bef8c4bU, 0x3cc6422bbdbe05bbU, 0xbd04bc27be277a75U, 0xbdcc7c763e14aa07U,
  0xbe06b1bd3d8a1963U, 0xbe18ed77bdd45260U, 0x3d1d28d8be036e5bU, 0xbcfa2c2abe469c60U,
  0x3db1104e3da378fcU, 0x3d842927be308e0dU, 0xbe1e62c0be23d0f1U, 0x3e21272e3ded1ea9U,
  0xbe1a07bfbdf0f107U, 0xbe1f2cdb3e17c32aU, 0x3de586fd3d9559a5U, 0xbd9b81a53dea8d5dU,
  0xbe4ec97bbc8d328fU, 0xbd2b1ed23e10f574U, 0x3d019b073dd8e136U, 0x3e08bcd83db48bdeU,
  0xbdfdd277bddce62eU, 0x3d034991bc904108U, 0xbe3f0bf7be000ab9U, 0x3e03a98abd1d407cU,
  0x3c4513153dd789f6U, 0xbd93cc403da5a49fU, 0xbd517b733e602d45U, 0x3e8195c33dd73c8aU,
  0xbc09bd1dbe046ed2U, 0x3d7c7dfb3b9378caU, 0xbd13be473e1bf46fU, 0xbde8aeec3cbeb8a7U,
  0xbe6ff28a3d9873a9U, 0xbc8d18ffbd923be2U, 0xbe264e76be76407eU, 0x3d1c92863bb3a9f5U,
  0xbe1e4de5bd5e0ddcU, 0xbe66084b3d6b7308U, 0xbd949b013cd8bbc9U, 0xbe8cdd92be8f114cU,
  0x3dc19c683e8dbba0U, 0x3e3ee37fbe8dcda4U, 0x3d49c3f5be5fa8bbU, 0xbd0426993ea4ca45U,
  0x3bc20ff4be712655U, 0xbe5e683f3d592b65U, 0xbddd78e83da8a53dU, 0xbdbdc5f2be805a3fU,
  0xbe5429bdbe19f2edU, 0x3d8b5dcc3c7a36f4U, 0xbd1658f6bc0b1d45U, 0x3d2401f2bc4dbd72U,
  0x3dba51603e36334dU, 0xbb33ff343e0bd087U, 0xbd21d361bd9c3299U, 0xbdb288993ca6b4a8U,
  0x3de4f01c3d2e3d54U, 0x3dd337bcbe5dbeb7U, 0x3d4cf3363cb88339U, 0xbd2eb8a33e1b1ec1U,
  0xbdbe7718bd354b8bU, 0xbd4eb7e4bdb48ef3U, 0xbe7c8ca73bd183c4U, 0x3d7d4be53c6448efU,
  0xbdf9789abdbf4d96U, 0xbd91b717bdaa46bcU, 0xbd0585c73d1f4863U, 0xbdef731ebe1084caU,
  0xbcdbd5543dd42a9cU, 0xbda6e14ebc6cbf81U, 0xbdc9da60bcbb1a95U, 0x3d342630be0f8a9dU,
  0xbde8e438bd3e2a47U, 0xbd576437bdd69f18U, 0xbe26c16d3c775ed2U, 0x3d94e2e9be07e729U,
  0xbbe2d129bdf67ff7U, 0x3e38dfe13c19a0e2U, 0xbe431c4cbd1c1a6cU, 0x3d21da18bd43063dU,
  0xbdd1a279be1d1fd6U, 0x3df87908bdd1fd12U, 0xbe566445bde98dfbU, 0x3da500bb3caf36b4U,
  0xbe42a95dbd61e921U, 0xbcdc1f1d3b955991U, 0x3df5f3fdbd8500dbU, 0xbe0c98abbda92e8fU,
  0x3c93b67e3e11cfb3U, 0x3e0b7cbdbe19aeaeU, 0xbe61473ebcd51d11U, 0x3d9f447a3e7ec5beU,
  0x3e0535843e682499U, 0xbe22b7fdbe18d68cU, 0xbe563b9e3e663b68U, 0xbe80a5d63bfe25deU,
  0x3d01b68bbd870edbU, 0xbe1622583d3bbf39U, 0x3d49f217bdf06471U, 0xbd94260ebd336325U,
  0xbde36a2cbe0d7eceU, 0xbe5960a13bb889c1U, 0xbdfa9225bd3fcbbbU, 0xbe06877ebe071588U,
  0x3dd01da33e321701U, 0xbe685c00bd754c09U, 0xbe7b089dbdcd77c2U, 0x3d83ef803c842c2bU,
  0x3e867ee13e6b9a37U, 0x3e056d953d109b21U, 0xbe15b252bd863b4cU, 0x3db8a4bd3dd2a383U,
  0xbdefa22abe6e05c8U, 0xbdcd79153d1366d0U, 0xbd613554be31bc7eU, 0xbe134ac0bbeb2081U,
  0x3d9da6313d171efaU, 0xbe6297453ca1767bU, 0xbe132bde3e12fdeaU, 0xbdca7fcfbe42b174U,
  0x3df8478a3bf6ec02U, 0x3d38e43abdedcea6U, 0xbe409a823dd9a824U, 0xbd8fcdefbe1af49dU,
  0x3db88a223df98df7U, 0xbd5ebd9fbc01502bU, 0xbde22294bdd8aabfU, 0x3d9c0b4ebda2634cU,
  0xbd997634bd96e85eU, 0xbdee418e3ca68f73U, 0xbe029b37bd0fb50dU, 0xbc8cefb7bda287e2U,
  0xbe291605be180957U, 0xbe26ab713d6c3858U, 0xbe4aa4b63e2bcaccU, 0x3dc6dfe83e1e2db5U,
  0xbb5dea2f3de093d9U, 0xbceefa29be333d63U, 0xbe0b5b3a3e4cc03fU, 0x3e786f6fbd77c2edU,
  0x3e49dd103e37eb30U, 0x3e0f6e92be257a2dU, 0x3ca87e343da4b2b5U, 0xbe21a0313de9864cU,
  0x3db2e96ebdc5e129U, 0x3cad0bc4be455653U, 0xbe4e1656bd044a09U, 0xbe62792ebe26f166U,
  0x3db9e5e1bdc38f38U, 0x3db1a76d3dfa91daU, 0x3cf07d1ebd36452cU, 0xbdcd5ecdbdbc9ad5U,
  0xbda2880a3e2ccaafU, 0x3c7d701ebc785fefU, 0xbd5876aebe03417fU, 0xbdf3518a3e1e3e14U,
  0xbdb7811b3ca09216U, 0xbd04f7d6be1730f0U, 0x3cf8a32e3e3d8166U, 0x3dfc2ef5bdb558fcU,
  0x3c071089bded925cU, 0xbc961bdbbb9d11a3U, 0xbe3a738c3ca79746U, 0x3d9cac133ded6f29U,
  0xbd850549bdcf0edeU, 0xbe05afcebdb079f2U, 0x3d7599063e33c9ecU, 0xbd258ffbbe5fc151U,
  0xbdb94d91bd4eb19bU, 0x3daea583be3a36deU, 0x3d9416eb3d2aa3d1U, 0x3e0252283df7a1aaU,
  0xbe0cc5613da17b43U, 0xbdf2dcddbe0c6119U, 0xbdfd74433dfd976bU, 0x3d0687c63d3620c7U,
  0xbe042947be019927U, 0x3dfbd3493d9316f0U, 0xbcbd43f8be4025e3U, 0x3d97db313df7b8d6U,
  0xbdd33c103d49a133U, 0x3e01f8553e1d4b78U, 0x3d668ef73e0f31d5U, 0x3e1317fabdf90677U,
  0x3cb29aa13c21a932U, 0xbcf779a93da14f2aU, 0x3dd88b853c5768fdU, 0xbe059b68bd3d51f1U,
  0x3e429c44bdfdf578U, 0x3d8ece6f3e0e0447U, 0x3d8a3829bdd287c8U, 0xbe553f63bd53f789U,
  0x3e1290f4bd7826bcU, 0xbdb68b15be365f8cU, 0xbe1b00c2be6357a7U, 0xbdaca891be37a7c9U,
  0x3c041b193e2be916U, 0x3e1e14febcefbd09U, 0xbdfc38b93d4169adU, 0xbd8a1b63be1a146aU,
  0xbc4fc244bd19c43dU, 0xbd012e83ba6ed13dU, 0xbde09fc7bdd1de8dU, 0xbb975d5e3d7be5c8U,
  0xbd2ff039be60ba6eU, 0x3cdb23a53e7621a5U, 0xbdc42891bddeb6e9U, 0x3d008bbe3dafab85U,
  0x3de945f3bbf9d3f2U, 0x3e2719a1bdcc4b26U, 0x3db3edf1bdc94214U, 0xbd3f0cdcbce4dec9U,
  0x3d345e543e3133d7U, 0xbcb47e923e39c92dU, 0xbe4324423da0f858U, 0xbe0842483d97f385U,
  0x3ca06ab9ba6802c2U, 0xbd97d8ec3c9ead47U, 0x3e1241ce3d1140f1U, 0x3e228b8f3d41082aU,
  0xbd81dedbbcce73bbU, 0xbdb9b8a83d6f5cabU, 0x3d9e3a47be27a41cU, 0xbe33719ebda1fabdU,
  0x3d2341403bf5ff3fU, 0x3e3ab5ca3e27e48aU, 0x3caf78983d3fbb44U, 0x3e3ffc61bdeff398U,
  0xbdeec59abc041e8fU, 0xbdcb74c03e069da8U, 0xbdab8ba93e0fe385U, 0xbd9a1814bdba0ec0U,
  0xbe49cc3c3dc53e49U, 0x3d5eac69be5a0199U, 0xbd816dcc3d25c2e4U, 0x3ce10fe63e709f6bU,
  0xb9a99e04be437d41U, 0xbe3f4896bda8b71eU, 0xbe437e2bbd6bc6cdU, 0x3d883c99bd31b1f1U,
  0xbe31b231be131b0fU, 0xbd263b14bdb3fcb0U, 0xbdbe2addbc13171fU, 0x3e1f8f633d04ad45U,
  0x3e12430c3e027beaU, 0xbd83451f3e665b62U, 0x3db76a4b3dc2e007U, 0xbe3b0becbe036c40U,
  0x3d82cdc1bd95e857U, 0x3c75d430bd58c74eU, 0xbe290e6a3de5d180U, 0x3dae0bcf3c329c99U,
  0x3db402833e03765bU, 0x3de5e07a3d2b1e74U, 0xbd427a4bbe145c48U, 0x3d0ecb563d12eab5U,
  0x3d6589823decab00U, 0xbde4b6473d001572U, 0xbe27066abcf323f2U, 0xbdf28d16be38b47fU,
  0x3c9059d7be2aada6U, 0x3ce4c502bdf395a8U, 0xbdfe8af93d53f271U, 0xbe86db05be421207U,
  0x3cf4bb0cbc9e709aU, 0xbd82bec1bdbbc986U, 0xbd72ee873caccf9cU, 0x3d9a59df3dd0f08cU,
  0x3d252f9abe3afe02U, 0xbd9319473dc05eb7U, 0xbe4aefcdbcfbeaddU, 0x3d46aebebe084f17U,
  0xbbaa501f3e0da048U, 0x3e1f2939be1ded82U, 0xbe324eac3ddeb32aU, 0xbe32d896bde6ff59U,
  0x3d60d7993e0b5d8eU, 0xbcdb5d393e327b6cU, 0xbd5ec34abdfe0a63U, 0x3d84d680be520dbeU,
  0x3e3837cc3dd99e72U, 0xbe0a2bc0bdb68ed1U, 0x3d95a1a5bc1a795bU, 0xbd40cf7b3e2547deU,
  0x3d1940093d3ddcceU, 0xbde98b52bda8b093U, 0xbb1f3deb3b41be65U, 0x3d54f1933ce824e2U,
  0x3d8293b0be47e3cfU, 0x3da961923e0efec8U, 0x3d1cdb71be164207U, 0x3d28286f3dc00fb3U,
  0xbdd56d783dd11bafU, 0x3e1a931f3e0c8463U, 0xbd4c81f43d841c3cU, 0xbd9c9c54bd94f1f0U,
  0xbdd7f4fc3d8e24f7U, 0x3de3c909bdbe36d6U, 0xbdfb2b5d3d4a5768U, 0x3c27f8a03df5e106U,
  0xbe1ca9d23daa519cU, 0x3dbfca8dbe26cabfU, 0x3d9ea4a2bdee066bU, 0x3d469d3a3e19eddcU,
  0x3d801e51bbabbcafU, 0x3c087ffbbd522b29U, 0x3e13713d3e3d6c0cU, 0x3dd44e523e0833c0U,
  0xbdce138bbdb7a836U, 0xbd81fe973d971a28U, 0x3d828e35bd4f3af2U, 0xbdbab80cbcc23203U,
  0xbdd6eb51ba797d99U, 0x3d874ff7bd05dc21U, 0xbc11bf1dbca1925bU, 0x3b095a67bd7915c4U,
  0xbc92a3933d97eb93U, 0xbe044e43bde3f2f1U, 0x3da9240dbdab24e6U, 0xbe0138e73dac1f42U,
  0xbe0e4a1fbe41dfb3U, 0xbde90480bdb1c609U, 0xbe848ed8be265b04U, 0xbdccd76b3c03dc3eU,
  0x3d22b0acbde1d130U, 0xbd1e1111bdb61b78U, 0xbe2a94343ca9919aU, 0x3d84e337be268ca4U,
  0xbe5225f3bcc949a9U, 0xbde44cb9bd288244U, 0xbd23840abc1d13f0U, 0xbe45ed103e22823aU,
  0xbd94f77c3e0b0006U, 0xbe8502493dcb3fbcU, 0x3c9d4625bb83f2e0U, 0xbe1284203d74710cU,
  0xbc1f845c3e1ce554U, 0x3dc2bb1abd2f5f22U, 0xbe25ded9bda577a3U, 0xbe05bfa9bd496e8fU,
  0xbc448d543e464459U, 0xbc2f7fee3e3ca6bcU, 0xbc75a22f3d4d86acU, 0xbdc40277bdbef78eU,
  0xbd9646943d75beb3U, 0xbd13c347bd9f42b8U, 0xbdfa98813dcded3fU, 0x3e23fc1abdc066aeU,
  0xbd7868ebbbae96a8U, 0x3e36ba22be0fbd82U, 0x3e287d473c906e3bU, 0x3e356ec23dc0ab45U,
  0x3d4ff98ebe0c7f82U, 0x3dc381fdbd661311U, 0xbdf984bbbdc2d986U, 0xbe2eaac3be0704c3U,
  0x3d855b74bdd6a5bdU, 0xbe0ea003bcab7c3cU, 0xbd9f0b173e277eabU, 0xbe3c31c0be4cfeabU,
  0x3ad6e3c8bde84852U, 0x3d5d3cba3d195078U, 0xbe14ee913dffeea3U, 0x3e054d9abe1fa21fU,
  0xbde4f2e4bd9477a8U, 0xbc956a0fbd99d4d5U, 0xbcd5ccd13e20ece1U, 0x3e85d2fe3e3fb5f4U,
  0xbda49d9abd4e4c89U, 0xbdd6e3743dcf543dU, 0x3df631f43d97bb01U, 0xbe02df6b3dabfba0U,
  0xbe0b0906be2827d1U, 0x3d3801b5bdff0354U, 0xbd0584be3e15dd7fU, 0xbcb0ba5fbd914956U,
  0xbe66fed03e31caedU, 0x3e116961be2edfb2U, 0x3dbda9b2be2fdee3U, 0x3ca6e5b33de131d9U,
  0xbd8637aebe63c9d2U, 0x3db9b00cbd81a8f5U, 0x3d7a8fc2bdd51e40U, 0xbd4b0035bd9be63cU,
  0xbde55cf23d3ccdc0U, 0xbd86ac87bd0227c4U, 0x3dc42378bdfce6b6U, 0xbdfdf2113e08cf1fU,
  0x3e03691f3bb972c5U, 0x3d5d15783e5af80aU, 0x3de150073d06c737U, 0xbc373e8dbb739cafU,
  0xbdb55362bb2f9e57U, 0xbcf6a2ef3d4bb491U, 0xbdfa36583e092db1U, 0xbde82ba0bdfba144U,
  0x3d2ae78ebe00ebbcU, 0x3db7a8cebc0385e8U, 0xbdcbe1473e278c3aU, 0x3db1d01d3e5f8c65U,
  0xbd422646bb3e829eU, 0xbd52b8883db61d4aU, 0xbc1ec13f3dd7af27U, 0xbe3b50713cdac40aU,
  0xbe4e52f4bcdec2e4U, 0x3d235ed5be53f97eU, 0x3ab98ccbbc0febbaU, 0xbca9717ebc026ef9U,
  0xbe1f45423de6eb60U, 0x3e4674f9be2240a6U, 0x3e4a0bb5be76d8c5U, 0xbdeca446bdbe8c3eU,
  0xbd6fab66be4f5d60U, 0x3dae2344bdbed019U, 0xbd8699e9bbadae01U, 0xbc698844be62eaafU,
  0x3cb6a0c13e336bdfU, 0xbdd094a4bd41ad94U, 0xbe13178bbdafa99cU, 0x3e444b463e3b4d58U,
  0x3e1b7d64bcb1a111U, 0xbe48c1753d89f635U, 0x3c3545873db44c80U, 0x3dbc94e73e3138baU,
  0x3c5ed2ee3e33d057U, 0x3e59a889be531e7cU, 0xbcb99e7fbde974f1U, 0xbdbcf1bbbd40d556U,
  0xbdcd2c70be3bbf1dU, 0xbd8ef14bbd80ccffU, 0xbe408d333d370da3U, 0xbdf0e951be8e0c85U,
  0x3cba0a32bd582b44U, 0xbd40f9fa3e0ff6fbU, 0xbe1afca6bc778eacU, 0xbdf92bb9be019e85U,
  0xbe30164bbdf3a7e8U, 0x3d5425f13dee9148U, 0x3e43cde3bde4f7d5U, 0xbe1b7785bdddb4deU,
  0x3e5ac67c3be452feU, 0xbe1d34f63d739c3cU, 0x3b69bc463e1d561cU, 0xbba2ee97bdd1663fU,
  0x3e57d23e3bca47bcU, 0xbd856d2fbd8e9e8fU, 0x3da18d0e3e1c34c8U, 0xbe4b0596bd7c76eeU,
  0xbce05e50bd92b77cU, 0xbe336311be387e1eU, 0xbe1c7de4bdd9aae8U, 0xbe4cc69e3d47d83aU,
  0xbe382a2ebe07d7f8U, 0xbdb7bdaa3d0bfbfeU, 0x3d08a7fc3ba329a0U, 0x3e12ede6be50fee7U,
  0x3e27bc97be063967U, 0xbb216bd4bd690cc9U, 0x3d4fe0723e68d141U, 0x3e0fa6d1be3de557U,
  0x3dbf509f3c7cbfd2U, 0x3e49422e3db3abdaU, 0x3e318a513de33da5U, 0x3e561f8c3c924737U,
  0x3e55002dbe396fddU, 0xbe2be0a23d795765U, 0xbc891d78bd8194caU, 0xbb331bdf3d4ca52eU,
  0x3d8e55a4be617401U, 0xbc8af9f9bcc8c84bU, 0x3d5165233e5519dcU, 0x3da4572fbc887aa7U,
  0x3de6604e3c7e5b17U, 0xbd760700bd301496U, 0xbe288a7e3e1e0774U, 0x3e48d98e3dc4151dU,
  0x3d9116743d2ed07eU, 0x3d20f7b7bda1d2f2U, 0x3d85b4443e5d0550U, 0xbe88aaadbcbdb9caU,
  0xbcfbd3653d509f80U, 0xbe31b941be5f897bU, 0xbe654b9dbda23dc5U, 0x3e0168de3d92a186U,
  0xbe1115ddbd91a69cU, 0x3d73f447bdc2bec5U, 0xbdcce61d3c4d095eU, 0x3c720c95bdb53bc7U,
  0x3c8d38643e8215cdU, 0x3e712daabdb33a27U, 0x3e1bb01ebda312e2U, 0xbe4486813d1be499U,
  0xbd512fcabd329949U, 0xbcfe89873cc4a0c0U, 0xbdd40a023d1c801fU, 0xbe8584a33da275c5U,
  0xbccbf1d73e0784bdU, 0x3e03808abdb2ff35U, 0x3e2957773e12f1d7U, 0xbc26d299bccde881U,
  0xbdf8af6c3e72c521U, 0xbe54e2243db01503U, 0xbcc2750e3cfc7ae1U, 0xbd8768b1bd169e84U,
  0xbd684c8b3da64a6bU, 0xbdc75a1cbdbe9967U, 0x3c8f61bc3daf2483U, 0x3db9b1593cd0e9d7U,
  0xbd244cbc3e63f13fU, 0x3e1ed41fbdc7513bU, 0xbd1c048c3e20b5a6U, 0x3c8f0c863e697a4bU,
  0xbd6867603dc05a11U, 0x3d074c053ce6191fU, 0x3dfde47dbd8d634eU, 0xbe15840a3d931b47U,
  0x3dd8a5a23dc7266aU, 0x3e001378be0c2937U, 0xbcc5c0b33d1983e7U, 0xbcfc56f9bc890caaU,
  0x3cc00908be3ecf78U, 0xbe3298613de5be21U, 0xbd874de73dee8922U, 0x3dc19d1d3de62e47U,
  0xbe098dfc3d723dadU, 0xbdda21d73cb3961cU, 0x3c4753783da3c85bU, 0xbd439d873e2a53b4U,
  0xbd2ca300bd0cf60bU, 0xbdf6fb80bcd70fa6U, 0xbdb078ccbd2d903cU, 0xbe33a373bcbc1497U,
  0xbcd9eebd3dd3c452U, 0xbc3e98b2be49dc25U, 0xbd5a534c3e56e572U, 0xbd38adc5bd2a55bdU,
  0xbb66a40ebdfed836U, 0xbd4cc9003e27d637U, 0xbe39bbabbd4605ebU, 0xbde0285dbd7fd9a0U,
  0xbde03dc3bd09e36dU, 0xbd6db089be76b335U, 0x3e8690c73de494c3U, 0x3dab1e323d085640U,
  0x3e5b967e3d6d3247U, 0x3d5493543e1429a3U, 0xbcce712fbe417a51U, 0xbe0707a3bd546876U,
  0x3e55b094be110386U, 0x3e5f7a8bbe1d8088U, 0xbe53d004bd173edeU, 0x3da2dfd53d29acedU,
  0xbd22b9e9bd8c0f61U, 0x3dd0102f3df4b59dU, 0x3d31a8d93e3f93a2U, 0x3dddeaadbe4639b5U,
  0x3e2c95b8bc1c8761U, 0x3a3f3d8b3da9b8b7U, 0xbc12cf8d3e251b3dU, 0x3e80b86b3e8f85eaU,
  0xbd5a55263d7e0025U, 0xbe2375333a4054feU, 0xbdfd1c2a3ce8a0b0U, 0xbe4d0437bdfccadaU,
  0x3d3d9700be1537e5U, 0x3dda5b1c3d8b68f4U, 0xbd9681b63dd8670fU, 0x3e64d148bdb74b53U,
  0x3c95dc9c3d97a177U, 0xbe1b16ebbc859950U, 0x3b10dc933d5d9158U, 0xbd6a12533c157f9bU,
  0x3dcfeb273e471ce2U, 0x3e832237bcf2fa76U, 0x3dbf8ba03e40ed54U, 0xbc7d6cc93e4b8971U,
  0x3dc393723b46d1b7U, 0x3dd0e94bbce6fefbU, 0xbe2bff35bd235f54U, 0xbde17f09bd503c7dU,
  0xbe4a2d6bbdb36d8aU, 0xbcd75c74bdc8d5a3U, 0x3dce62f2bd2d51f8U, 0xbc8e84363e038cfbU,
  0xbe1a1fd83d82c9a3U, 0x3da41a73bdec4d05U, 0x3e0f3d49be825037U, 0xbe10a15d3e49ec6eU,
  0xbd028e263c86ce2fU, 0xbd2685bd3e365c75U, 0xbe533948be52eec9U, 0xbe1c1a6abe2973ecU,
  0x3d753485bc323b08U, 0xbc4d8b783dbefe3bU, 0xbca2ca363e6569b1U, 0x3e5a87043e180b2bU,
  0x3c4be8c5bd8cc9a2U, 0xbe53782bbd78efacU, 0x3cb701b5be80dc13U, 0x3cbc4d3c3e0f9b5bU,
  0x3e15d662be673073U, 0xbdf5108d3e4c2287U, 0xbdd5b1ef3d9a6beaU, 0xbc9e7e6fbe1c931cU,
  0x3debbc103da8da46U, 0x3e82b4b1bdc45eafU, 0x3e306c1f3dde7201U, 0x3df9ad84bb45cee5U,
  0x3d18a8173cbc04ddU, 0xbd1c23c6bd7a5201U, 0x3e25393bbd0d899fU, 0x3d84c4203ca9c2dcU,
  0x3e15dc583d5a46ddU, 0x3dad264c3d3c8f33U, 0xbbbd8771bd89ddaeU, 0xbd878c65bd0920d4U,
  0x3dcfa09fbe59025bU, 0xbe57f1ce3eb1e33fU, 0xbd49a33e3e038f32U, 0x3d3dad4cbcfd2cd7U,
  0xbd04dba1bd80e0e2U, 0x3ddeb40bbe1d0e61U, 0x3e8ae5923da9c64aU, 0x3e013ac73e814970U,
  0xbd94cb70bd03225fU, 0xbdc79fe43e1367cfU, 0x3acd04ffbe08c184U, 0xbe12a217be0b985bU,
  0xbe2c3dc9bdc5e0aeU, 0x3e80a436be25c944U, 0xbcf0caf7bdb14458U, 0x3e1ed3443e4bc0f2U,
  0xbc8c13883e455fd3U, 0x3d35a076bda96554U, 0x3e54923dbd103ff0U, 0x3bc4bb3c3da54e63U,
  0xbd6492fbbd96a9fbU, 0xbdcb6b9a3e3a9b37U, 0x3dc9e95bbe2a494aU, 0xbe003fcebe2b19d4U,
  0xbc91dfddbdfd4845U, 0x3cada7ec3d3530b7U, 0x3dab5cc2bd617e69U, 0xbdcf2fe0bdaa5681U,
  0x3cedac31bd45f8feU, 0x3df616553df2b94aU, 0xbd536c323d140f63U, 0xbe378d0cbd800fa7U,
  0xbe44dfa1be336565U, 0xbd516b3dbb15b7b5U, 0x3da4a146be12941bU, 0xbd99eeb4be269664U,
  0x3d995293be05fd54U, 0xbe3c9de83d9beeb9U, 0x3e22e3cdbe56ae83U, 0x3e1d1e22be574e23U,
  0xbcd0256b3e58711aU, 0x3e5fe2393e16acd7U, 0x3e25869a3e71dc7bU, 0xbde29d693e52ee51U,
  0xbdf2a9533df8dc17U, 0x3e44c50fbd919373U, 0x3e561228be4a0c35U, 0x3c3af3903bde4206U,
  0x3e0c3787be536c32U, 0xb82b54263e324b14U, 0x3d9d8a243e0195d5U, 0xbd1186dbbd83bd66U,
  0xbdab4ed83d2c6223U, 0x3e69733c3c31ebdfU, 0x3c66383a3df68783U, 0x3e7b381f3d826578U,
  0x3d426ba5bc144155U, 0x3d09277d3e754368U, 0xbcb0514bbcdee6b1U, 0x3dac332abdc6405aU,
  0x3d7e1506bc54bc47U, 0x3e2e22833db4289cU, 0xbdb6220a3d692651U, 0x3dc58b0bbdef19d1U,
  0xbd804736bd703711U, 0x3e57e9cdbc8616d9U, 0x3d5200f83d92dbb7U, 0xbe15fa4fbdde8c0aU,
  0x3c9da0863da0d660U, 0xbd08d8ecbd1683e7U, 0xbe1f1910be47cf35U, 0xbcd34859be38861cU,
  0x3e2a407c3cb2cff6U, 0x3dae32f83e011542U, 0x3d82e7063c6c31abU, 0x3d7ec02abde010d8U,
  0x3e41a3443dbf570dU, 0x3bef56c0bd3f3463U, 0x3df33699be394478U, 0x3d1bd178be060368U,
  0x3d9f2ce73e28dea1U, 0xbc9354ef3e10016bU, 0x3d9e9bf6be606b7fU, 0xbe269ec83deb1a2bU,
  0x3c60402cbe5e4589U, 0x3d381b933e31fd93U, 0x3d770cbbbd755b8fU, 0x3d7ea03dbe0135eaU,
  0x3dc0744bbdfcd229U, 0x3e3f363d3d3796dbU, 0x3defb93c3dda6d39U, 0x3d1d78e7bd802369U,
  0xbe1ac9e53e1eafb5U, 0x3c9b76c13e1678cbU, 0xbe06f3fbbb88ff44U, 0xbd0af71f3e2f0871U,
  0xbe012fec3e3809b5U, 0x3ce2ae643d0eb090U, 0x3e219e92be061435U, 0xbdeebb833c627af7U,
  0xbc8c03ac3bf6242dU, 0xbde51e2c3e1b0894U, 0xbd164ff1bd2efa97U, 0xbe5903f5bcda6e72U,
  0xbd806b89bc7a64b2U, 0x3e0eff5ebd060381U, 0xbddcb791bd58ca2aU, 0x3e3cba31bc8e60b1U,
  0xbc5d5d323e59b35eU, 0xbd98e4dc3dda40b2U, 0xbc6b7ee0be26924aU, 0xbde64592bdd160a5U,
  0xbdd54a393d52e682U, 0x3dc3205dbdbf981fU, 0xbcbffb143dc80843U, 0xbde55530be0e527aU,
  0x3dc35b4cbd6e6774U, 0x3e15a6583d077168U, 0xbde1c2cdbdbcbeaeU, 0x3e2db45a3e14b461U,
  0x3d9b8dd1bddf5a55U, 0xbd87fd64bcebd4d7U, 0x3d5c79aa3d23fec1U, 0x3b9871603e08b494U,
  0xbe0ac1933df9c63eU, 0x3e16f4b33e02507aU, 0x3d0a0374bdcd93beU, 0x3d61eeef3def2b06U,
  0xbd418a723d88453cU, 0x3e2a3c6fbdacbdd0U, 0x3da736e9bd5d37caU, 0xbb928d5d3d6fbe3bU,
  0x3db511bebcd58d59U, 0xbd10fcc5bdb33eb9U, 0x3df21b5bbe063071U, 0xbe3be61c3dbad83eU,
  0x3e1693a3bac1b143U, 0xbd799c08bcf4ffb1U, 0xbd97692b3e221354U, 0x3e24d4ffbdd9cea9U,
  0xbd9252d43daba474U, 0xbbeda67dbd246441U, 0xbdfccb6a3d9d1f3cU, 0xbd883c363e041265U,
  0x3e097c34bda3fc44U, 0xbda48744bd780777U, 0x3d85bee83e4c2a4aU, 0x3d95d95abcf36ff5U,
  0xbdd76cb83e758f49U, 0x3ca426bebdc8e5d8U, 0x3e48b906bd200568U, 0x3e884c033da17f39U,
  0x3dc311b3bdd4011bU, 0xbdb84a79bde22244U, 0x3d9aa876bde3e522U, 0x39c72862bc72afd5U,
  0x3ca0735fbe40f8baU, 0x3d9c90e23d44b801U, 0x3d300996bd070ff1U, 0x3d431b653dc4d9d4U,
  0x3e431d41be3ac593U, 0x3d72d5f83e14b664U, 0xbe5efd363d151e24U, 0xbdfa0dc8bbeda810U,
  0x3e1fc35cbdc44531U, 0x3e660f5f3d528963U, 0xbe1628003ce39766U, 0x3e04eade3e36183dU,
  0x3da765b23dadecc8U, 0xbdd788da3dde3aa6U, 0xbe54246f3db40553U, 0xbe5510753dfd2ad4U,
  0xbd71837b3d2a8b0cU, 0x3e3fa57ebe1201b2U, 0x3e0182db3e41d0eeU, 0xbe05c6413d79ad01U,
  0x3d3d22afbcac5861U, 0xbd948683be27dc18U, 0x3e5f65f1bc982b44U, 0xbca1e26cbda56031U,
  0x3df4c2d33df6b30aU, 0xbcda16143d471ef5U, 0xbd9e2d403d4c0061U, 0xbde74feebe04d186U,
  0x3d962da53e27897bU, 0xbe0e3bcfbd080f64U, 0x3e370c3f3e1f2aacU, 0x3dca91913e128284U,
  0xbc0d8e2abd838131U, 0xbe60c53fbdbfc28eU, 0xbcdbfb0ebe17cf27U, 0xbe316a313de4413dU,
  0x3cc56e96be01944aU, 0x3d251f553bde4a5cU, 0x3dd672b2bcd7502cU, 0xbe063eb4bdff8d32U,
  0x3daa88e53de88840U, 0xbdd902463db02c17U, 0x3d88fbf33bfa5002U, 0xbd1e6806be174011U,
  0xbb65a9263dd2fc90U, 0x3aa3f6823b6e8782U, 0xbcfd23713cd1b91bU, 0xbcb91c1b3c7760c2U,
  0x3d340bd9bd00428aU, 0x3e4ba0f8bc01a2bbU, 0x3d25ad6c3e302586U, 0x3dbc5648bd7757fdU,
  0x3df65b55be0397ebU, 0xbcd0bb773c8c4b4fU, 0xbd57de143e2bdfeaU, 0x3e303befbdea1d1bU,
  0x3d2df644bd59f76fU, 0x3def75d63d5a2e28U, 0xbd90bb5fbd40134aU, 0x3e50ad813de1c175U,
  0xbb4bb7a33d74a0a4U, 0xbcc5923f3cbc0014U, 0x3dbbd9f63de98fafU, 0x3dca3e34bd75915bU,
  0x3dacdaafbe7f764dU, 0x3d9bd3abbe69b34cU, 0xbe46e2c3bd0adeabU, 0xbcf441b23e560fa7U,
  0x3dc3aba33c23fd0dU, 0x3cdc45afbe140247U, 0xbd80d0293dbfeb58U, 0x3d995798bd90ac0eU,
  0x3c939fcfbd8bf5d9U, 0x3d92728b3e1721b0U, 0x3db6e5c6bcd6f84bU, 0xbdfe75cfbe1791b3U,
  0xbdb9f55bbd8e3decU, 0x3dfc5b57be2cd945U, 0xbe3551313d619e19U, 0xbe0d738b3cf374edU,
  0xbc342612bd76b096U, 0xbd24d6a0bca174c2U, 0xbcef4882bdbeb26bU, 0xbe18df10bded8d1aU,
  0x3c316bec3e5afbbcU, 0x3e62998c3de39cc1U, 0xbd3531ff3d78da5bU, 0x3d70cac63d2257eaU,
  0x3e331040bdc7373dU, 0x3d9cdcabbcf87201U, 0xbe118094bd515056U, 0x3e2d8674bd91e218U,
  0xbdbc09ca3d3f866fU, 0x3b4a322d3d48d384U, 0xbe722f0e3e3521abU, 0xbe00bc2d3e219eccU,
  0xbcc55abe3e07a28eU, 0x3dc781ab3e09e893U, 0xbe47f0d13d50d821U, 0xbdbb33c03d9a6f3bU,
  0x3de659d0bdd0ad8bU, 0x3e0bfa48bdca7b0eU, 0xbd9d20bc3de65a82U, 0x3dd85808bd61809dU,
  0xbddcdf313e180babU, 0xbbb0cd8ebd8a6896U, 0xbe56d9ea3e06ce5dU, 0xbe2e1487be3bf0f0U,
  0xbd3be6cdbd3069ebU, 0x3dde8084be08fbf4U, 0xbdbc4d4c3d63a9ccU, 0xbdcca495bda9c64eU,
  0xbd1ab5f93d6d3b1aU, 0xbe14734fbe0180c1U, 0x3d5a4018be350f7fU, 0xbe36d455bd47a211U,
  0x3dfa5b7cbbcb83f2U, 0x3cfe28553d54bd4cU, 0xbd8ede2abcfd9c75U, 0x3e652db13e141fe0U,
  0x3e324fb9bde627a9U, 0x3e11c7443de23076U, 0xbe72549a3dba959dU, 0x3e319bb8bbabc061U,
  0xbda10d38bdadf01aU, 0x3d63dd50be1eb643U, 0xbd057682be5ee0c6U, 0xbe30ae62be118396U,
  0xbdeb2119bd14374cU, 0xbe4af376bda1f750U, 0x3de4c55b3cb6e46aU, 0xbe5e59fa3dd66f45U,
  0xbde66835bcc42142U, 0x3e7979d9bde9d65bU, 0xbdbc99753cf50e1aU, 0x3e07577f3e6a0444U,
  0x3d4142f63cd7c3fbU, 0xbe5ca807bcb214daU, 0x3d76c79f3ca0e740U, 0xbbadfaaabdb7e51cU,
  0xbe338ff8be2df617U, 0x3d94737cbd88f5b9U, 0x3d4935fcbe5d11c1U, 0x3d78252b3c8d818dU,
  0x3de608613ae2068dU, 0x3d66909cbd34759aU, 0xbe01b734bd00953aU, 0x3d93e4dc3cc88311U,
  0xbdb269ccbd6d9442U, 0xbdcb4f24be5b0be0U, 0xbe29a5883d3217e5U, 0x3db48f123d77acffU,
  0xbded485c3d9964d1U, 0xbdd7d43e3c3cdf37U, 0xbda834cf3d9eecb4U, 0xbe5da592bd8ba975U,
  0xbe33fa75bda93d27U, 0xbc54f2c93db857e7U, 0x3da6478dbdfc9849U, 0xbe00ac993d080ba2U,
  0x3db9fb71bdc49de8U, 0xbe49cbaa3dece607U, 0x3dfa9a14be34286cU, 0x3ded19703da3580fU,
  0x3c25d54cbd16607dU, 0xbd04c4443dccf736U, 0x3d13fe153d8cb3f8U, 0x3e2dbc443d4df0feU,
  0x3d82ca59be27607aU, 0x3decc4dc3c38c5d3U, 0x3d7364223b9a46faU, 0x3dceb64dbe3e3434U,
  0x3ce4b6013d8a1246U, 0x3ae3b9eb3de18d91U, 0xbe6244ba3e08c7b8U, 0x3d35a6ce3e078241U,
  0xbe1f4e84bdc2a290U, 0xbe5e6e9cbcb87c9dU, 0xbda87297bdcfd8a9U, 0xbd971c5a3da67433U,
  0x3d8551e8bd1940a0U, 0xbdbacfdc3dd9f525U, 0xbcd5c6d13cbcae10U, 0x3e3465da3dd2c792U,
  0x3e0442893bd337fcU, 0x3ddc0deabde2bbe9U, 0xbd400e7f3d8d5cdaU, 0x3d5e76df3e29bd3fU,
  0xbd89bec63e04d5d6U, 0xbe32e4c23d854357U, 0xbe556c9a3df25d35U, 0xbcb497c2bc61cfe8U,
  0x393d1f673da86fe4U, 0x3e14151cbe35c0bbU, 0x3e028da33dca156fU, 0xbdcdc8d8be25fcfbU,
  0xbe2c1f433d361bb7U, 0x3dc60facbe5a15a8U, 0xbd097170be009d24U, 0x3e355a4c3e118794U,
  0x3e0b362ebe28acecU, 0xbd0824033d7d2830U, 0x3c9c4230bcf0ef90U, 0xbd95fcabbe50ccb9U,
  0xbd91cdcfbd3006e2U, 0xbe52478dbe1e0f90U, 0xbe2ba868bc3f884eU, 0x3dddea613dfc9113U,
  0x3d41d39ebda111feU, 0xbdfadbd4bdadc439U, 0xbe2639c7bdc20af8U, 0xbd7ca3d83cea72ffU,
  0xbd058a1bbda2c78dU, 0xbe20bf41bd708834U, 0xbe61c636bdd9c23dU, 0x3dfb7a893de1ca7aU,
  0x3d7a96463d5cd8d7U, 0x3d417668bc6f1e6dU, 0x3d8cf368bdfe01d0U, 0x3e00a0973e0d5188U,
  0xbcf18bf0bdc3bdb5U, 0xbd9c2925bbc805f2U, 0xbd4d81a43b83d035U, 0xbdf38f623d992aadU,
  0x3c8b67e53daf0bc6U, 0xbe075c85bcfd3e55U, 0x3c0ea93e3dbbfc5fU, 0xbe082fa3be258349U,
  0x3dd4d3bcbe158a1eU, 0x3e38c401bd919d82U, 0x3d9a00dc3e08ba35U, 0x3d9fa8133e1fcb45U,
  0x3e0e4b423dfe54b7U, 0x3e4c3c1c3d577d95U, 0x3df08be2bda499f2U, 0x3d8e0e19bd5b95ddU,
  0x3ce3e43dbe16b364U, 0xbe86566d3df1709aU, 0x3c2f3f3f3cf807afU, 0xbd965cfcbe4d880cU,
  0xbe3df5a23dadf55aU, 0xbe4ebb933e0a3fd7U, 0xbe92356ebe17d32fU, 0x3dd9770bbe6ffb8aU,
  0x3dab7afe3e72da26U, 0x3d9b88b5be215586U, 0xbd3ad0e93d408b90U, 0xbce55e2b3e06aea6U,
  0x3d77b114bdf0a4dcU, 0xbcc2003b3d200aa8U, 0xbd29e839be0107a0U, 0xbe3ea3fbbc98e5bcU,
  0xbd2dbcc73d2ace10U, 0xbd13a369bc294811U, 0xbe71e44f3d43a070U, 0x3e012ddcbde82cc8U,
  0xbe4286e0bd84028fU, 0xbd765542bde51791U, 0x3e35e063bde8b462U, 0xbe4176333db18f08U,
  0xbd8abee8bdbf910cU, 0xbd8c1edf3dc5177aU, 0x3e32bd403dc21ab8U, 0x3e3cf31e3dfe2dcaU,
  0xbd99df76bdb2347aU, 0x3df06f5dbcd3f4f5U, 0x3bfe96643c905105U, 0xbd22a9a0be2a5c31U,
  0xbd91622a3db892c3U, 0x3d66f2c9bd5f7c0dU, 0xbd887ba3bdf40000U, 0xbdf3b75abe209935U,
  0xbd3ccbadbe02e764U, 0x3c92b2ac3daff1bbU, 0xbd69b5913d7b3d18U, 0xbe4237af3c15b2a9U,
  0x3e4ac9813e279270U, 0x3c6e94043d84cbe5U, 0xbe33644fbd03c248U, 0x3e6cecc83e452126U,
  0x3e7f2c7ebdad1ec5U, 0x3b9ebe083e267a32U, 0x3dbd1f453e3b57d2U, 0xbe105d933e056472U,
  0xbd651ae9bdb446bcU, 0xbc0c1c49bdd2a570U, 0x3bb91b5bbe6bb5ccU, 0xbe1b7699bd94644bU,
  0xbea4a04d3bad1e19U, 0xbd8da3f7be10ae47U, 0x3d4a14d5bdffafb5U, 0xbd97671abe929d65U,
  0x3c1cca963d81596cU, 0xbdacc85dbe0a7cbaU, 0x3e033f43bdd9d610U, 0x3dfa39cd3e51be34U,
  0xbd22ba0a3d562f7fU, 0x3dee9e043d862baaU, 0xbe606849be234f37U, 0x3da68542be432e95U,
  0xbe3d6321be119fe9U, 0x3de2b224be26c13cU, 0xbd464a2a3cc88a92U, 0x3da703d2bdba131fU,
  0x3ab734ce3df2e892U, 0xbe9a8e053d8b2b20U, 0x3cea94e5be023394U, 0xbe91da7ebdb12d7fU,
  0xbd350687bdb22e43U, 0xbdfe94d7bd534e8aU, 0x3da7b055be2c4b70U, 0xbe028ea1bd26d8c1U,
  0x3d841d7a3e035b2eU, 0xbd6163f4bb9910f4U, 0xbc7110b0bdef597bU, 0xbd9d951dbda0cf85U,
  0xbdd6d031bd574264U, 0xbe4e35013aa8ac92U, 0xbe009329be138a62U, 0xbe3bcd9bbda809ccU,
  0x3da1fc383e1ebabeU, 0xbe7609dd3e1df0e8U, 0xbe2166f93d6445caU, 0x3d8e9a8cbd8f51a2U,
  0xbe0fdcab3ddb44ffU, 0x3df37994bd71fdb7U, 0x3cbaa6f93d9e651eU, 0x3b8e7e3a3cdc80dcU,
  0xbdad796abda88ae4U, 0xbdad6da6bd306da8U, 0xbe10a032bd83d9ebU, 0x3d8ad0a83d8c7a77U,
  0xbe489b353cec6a80U, 0xbdeb64cdbe59c27eU, 0xbc8b5a56bdeaf094U, 0x3d816ca1bdca861fU,
  0x3dc4ead3bd62f997U, 0xbb905c52be0045ecU, 0xbe082800bdf52b8bU, 0xbd8384bbbe001251U,
  0x3e6118893e452dfbU, 0x3d5702c1bd44bf09U, 0x3cb4f8b83de07172U, 0x3e51e98b3e345542U,
  0x3d1144cf3d698897U, 0x3d85989abd602baaU, 0xbdb371b53e6429b4U, 0x3c9317103c330dd5U,
  0x3cb877a43d3f5d67U, 0xbd58f5cdbe4dd8b3U, 0xbe0f536b3da56503U, 0x3dcc22debcc1e60eU,
  0xbdc8e509bde62ff0U, 0xbe021e863e430cccU, 0x3d8a137abe1c38edU, 0xbe3c97d73de6499dU,
  0x3da6070c3e693e29U, 0xbe700fc9bcb7c671U, 0xbe0282d23d25956dU, 0x3d5d73e73cee5331U,
  0x3dd381ce3d06f64fU, 0xbd8aaa3abe0073a3U, 0xbd1e57db3dd2c049U, 0xbc292ac8bc2a60b1U,
  0xbbf68e03be38caa5U, 0x3c9e90a53d033c5aU, 0xbe44912dbe880937U, 0xbe626a20be61fa73U,
  0xbd8c1527be19e922U, 0xbdeaeb0bbc2eb990U, 0x3d2b9d33bd6c2afdU, 0xbd7b4e1b3d9e5134U,
  0xbd53e7c3bdcb48b5U, 0xbe401e793d1b6c8aU, 0xbdf2de3b3c2d91fdU, 0x3de59809bd8754efU,
  0x3cc5b01a3e3e0179U, 0x3e045b5cbd19c4bdU, 0x3d156df3bd418fc2U, 0xbe02276b3dc9a722U,
  0x3e23c2943c1675f1U, 0x3d855dc23be9c1ceU, 0x3deced173da6f1f6U, 0xbd80b22dbdd390b6U,
  0x3dd3508ebe28cf67U, 0x3e3420d93c443076U, 0xbbbfff9abe16db1cU, 0xbd5a1f97be1151ecU,
  0xbd454fb53e006533U, 0x3d420a6c3dba946fU, 0xbe19a49c3d97e84eU, 0xbd486f2ebc637cf4U,
  0x3c94ca833e63d506U, 0x3d5b7c89bd4238c4U, 0xbd4f0f0b3dc32dafU, 0xbd47d1543e5c5316U,
  0x3d4bf0973d82d3ecU, 0xbd18c3813dd370b0U, 0x3d13a816be30557bU, 0xbdd1ccd83d992d27U,
  0xbde02bc83c8f9afaU, 0x3ab6e10abd714628U, 0x3dc99b6e3e2e51b4U, 0x3db5ba5ebe637771U,
  0xbcbd965f3da35d4eU, 0x3c0354da3e18af72U, 0xbe351bc73e5a1190U, 0x3e0556c1bda40767U,
  0x3e15aa37bd6e7570U, 0xbde02b4dbdf159e7U, 0xbc3c09593e4f7b8bU, 0x3e019d6fbddbdf6eU,
  0xbe1f7b96be51be27U, 0x3d8faa23bc860096U, 0x3d25400fbbbbd3a8U, 0xbe38f0d7be3c69bdU,
  0xbdd38b4dbdfd511eU, 0x3e2a5d2a3dd98cacU, 0xbe08e8803e452864U, 0xbe12a63ebdf6e805U,
  0x3e055d37bdbde12eU, 0xbc707a75be3c4912U, 0x3e020f703e3a35bfU, 0x3de144ef3dc47a35U,
  0x3e3b164a3d3bf3f7U, 0xbdce2f86bd3b0ca2U, 0x3d3b30473e209218U, 0x3dbca8f83e1c73f7U,
  0xbd22d08c3c282997U, 0x3cf3950cbe022f39U, 0xbe34d1213e0b91a6U, 0x3d7aebc2be0beccaU,
  0xbd94acd1bd5998beU, 0xbd869c093de25e3dU, 0xbd81c735bc897f1eU, 0x3daf0d0b3d9e270bU,
  0xbe3175373dd4c36eU, 0xbdebf31b3db23a69U, 0xbe40a5c73d55dd82U, 0x3d6216f53c77f5e0U,
  0x3d887450be08656aU, 0x3e330cac3e186a86U, 0xbe023fe33ceba192U, 0x3d144e223da2b660U,
  0xbc3eabc4bdf9c6f6U, 0xbe2ef4ea3cad528bU, 0xbc9f63663ced4992U, 0xbde0cc20be0a309dU,
  0x3cb9d863bd98f311U, 0xbe20c571bc0f2fdcU, 0xbe1b2ff73d503efeU, 0xbe39ef1d3c911644U,
  0xbe2cbdff3d68b3e0U, 0xbdc8b008bd695ac8U, 0x3d1916f3bda60b43U, 0xbd9b4baa3e50b687U,
  0x3c69ee083d0fad3cU, 0x3de915613cddd1eeU, 0xbe1e5b2a3cd69040U, 0x3e033d153d0f691fU,
  0x3d50e69ebd997af6U, 0xbd17aa123d8d5413U, 0xbe0a4652be5178b6U, 0x3ce735893d947dbcU,
  0xbce577f23dafdff7U, 0xbdd15695bd393161U, 0xbe6162dc3e0676caU, 0xbe0b4f123dc46f70U,
  0x3d3b70453ca12fd4U, 0x3d71df80be12a8d6U, 0x3ddbee883e255919U, 0x3df9b8303e06a8bdU,
  0x3db8eb643e24d5fdU, 0xbd861e58bd72ff33U, 0x3db659373e0b328aU, 0x3c9713463cd57817U,
  0x3d3f1085bda8e2a9U, 0xbda4e7bcbd40fe3bU, 0xbd6242ff3e29d9c1U, 0x3e2d08d3be0b9cfcU,
  0xbcd8b6ba3da463d1U, 0x3dcffc053db6370dU, 0x3df19ce03d43fa87U, 0x3df2cc143d51aeafU,
  0xbe1937d93e2b09c7U, 0x3db8b00cbdeb1b84U, 0x3b5a8603bddf1140U, 0xbdaca18b3d55a388U,
  0x3dff0f573e06473fU, 0x3e059343bdccb467U, 0xbe689dfe3c61971dU, 0xbb23e7083d7717ddU,
  0xbd6eed433d2b81d5U, 0x3e241f8dbd9ab4d3U, 0xbd8c5a6ebcf9d6e1U, 0xbd924459bd517573U,
  0x3d537352bd727419U, 0x3ce7fd8e3e0cd7d5U, 0x3d0568ac3d5f30f1U, 0xbe5328983d0f19e7U,
  0xbcdfeef73e48dfaaU, 0x3c9febc0bdaeb5abU, 0x3e09b0463d074536U, 0x3e2184fe3e553621U,
  0x3e2a70783e1bd973U, 0xbe5bb1d13e42c56aU, 0xbe55f4503d818c09U, 0xbe29b0a5be11b3ceU,
  0x3be3a565be489a0aU, 0xbe14d0603d818bbaU, 0xbe09efb23cdd388bU, 0xbdf9717fbd10e809U,
  0xbdeb449d3dbd0a4aU, 0x3d091d20be096bc9U, 0x3cc33d293e31aa7fU, 0xbe86e8ddbe761f57U,
  0xbe62beaabd0e4917U, 0x3d23db33be1b2cc8U, 0xbdbcaec0be50edc3U, 0xbd6c8ecd3e33ad9dU,
  0x3bbcf87bbe2dacafU, 0xbccaade33e2e27ffU, 0xbe1c29b6bc4e1d4dU, 0xbd7a1d5abdc8d789U,
  0xbe76c1663d4b6214U, 0x3d5c2814be66964fU, 0xbe0eeb13be785d05U, 0xbdda90873d223dcdU,
  0x3dc85e763ce70605U, 0x3d19f8bf3da35ee3U, 0x3b9f86dfbe158278U, 0xbe210ef3be5642b5U,
  0x3e1c96ba3ddb9df7U, 0x3d07d1ea3d0ce528U, 0xbdc63d6c3e17c1e0U, 0x3c8ebd373e1e508cU,
  0x3df4d7843ce2e588U, 0x3e31365fbe465ca3U, 0x3cba72c63e13bf36U, 0x3bbb93853e721b50U,
  0xbc595e0ebe13b789U, 0x3c8c53623dc27baeU, 0x3cf1f4e4bd961da2U, 0xbc0e642abc332098U,
  0xbdb3eb6fbdb09178U, 0x3dd57c16be6d32d4U, 0x3ccd72ec3e1dd089U, 0xbc1c0f893d8ad373U,
  0xbda585ecbe243e89U, 0x3e13c74d3dc84822U, 0x3e1d52ac3e186b85U, 0x3d34b0e63db07a25U,
  0xbd97c22a3c66d1c5U, 0x3aa0db953d9d60fcU, 0x3e0d9167bdbc6b26U, 0xb8477fa43d05a142U,
  0xbdd0487cbd8f3dcfU, 0xbe1f8d97bc070991U, 0xbe1536573e04d14cU, 0xbe1a4e073dfe7b28U,
  0xbd9f89d6bd679256U, 0xbe11fc8bbda8130aU, 0xbdd5062dbd99fffbU, 0xbe03737e3e08f1f1U,
  0x3d5c9e7f3e7a270aU, 0x3dfa59a73da53d62U, 0x3e1beb9c3d25a5c9U, 0xbd3e1b3c3ce5ada6U,
  0xbdc12e0e3d67c45fU, 0xbe6eaf17bd936627U, 0xbe468cb63d100016U, 0xbb3762da3c99ce35U,
  0xbe2a7e653d149595U, 0xbe7bedc3be2be529U, 0xbe84bf7f3d057b92U, 0xbcf05fe3bd6bd53bU,
  0xbce791803e20c930U, 0x3cacda7e3e6731f1U, 0x3d7fbb46be1e9371U, 0xbe5c8623bda81781U,
  0x0U, 0x0U, 0x0U, 0x0U,
  0x0U, 0x0U, 0x0U, 0x0U,
  0x0U, 0x0U, 0x0U, 0x0U,
  0x0U, 0x0U, 0x0U, 0x0U,
  0x0U, 0x0U, 0x0U, 0x0U,
  0x0U, 0x0U, 0x0U, 0x0U,
  0x0U, 0x0U, 0x0U, 0x0U,
  0x0U, 0x0U, 0x0U, 0x0U,
  0x0U, 0x0U, 0x0U, 0x0U,
  0x0U, 0x0U, 0x0U, 0x0U,
  0x0U, 0x0U, 0x0U, 0x0U,
  0x0U, 0x0U, 0x0U, 0x0U,
  0x3e1496b53dda2effU, 0x3eaf5e32bd3cbe44U, 0x3e9eb2ac3e836987U, 0x3d30af7f3e37844cU,
  0x3d382ad0be33c1f1U, 0x3d87dafb3ee157cdU, 0x3ebad8413d8a31a9U, 0x3e4919883ede3be4U,
  0xbd6781b73dd070ecU, 0x3e25d4db3ebadde4U, 0x3df5355e3e524ad0U, 0x3e8e8e373ec4ce9aU,
  0xbdb9f7e7be111fb8U, 0x3e8b60a03e61e350U, 0xbdeb2bb2bcab05a8U, 0x3ead1924bd018c3cU,
  0x3d1ba51f3c6b1106U, 0x3ebbc43e3e08b16fU, 0xbd98e3a03df9d3edU, 0x3e4359adbe449bc7U,
  0x3e28f2193d82b9a0U, 0x3e5632003e04f48bU, 0x3f005f523d74f724U, 0x3e2a9977bddc9c61U,
  0xbe23423a3bb3f298U, 0xbcab8e343db97ef3U, 0xbcf849523dcfc5a0U, 0x3e2a0565bcc1f1e4U,
  0xbd3d16543e8fbcb2U, 0xbcddf0843e0f3660U, 0x3ddfad36bcfca25cU, 0xbda6a589bd605225U,
  0xbd776f84be034044U, 0xbe38d90c3bb524c0U, 0xbea7d7d13e122f1dU, 0x3ead21543d3e6a74U,
  0x3e9832a83e17d26dU, 0x3d72527cbdb5819eU, 0xbd2a44463e8a0f16U, 0xbd81edb43dc4588eU,
  0xbe862eefbe5c8f36U, 0xbe1db0d3be32ec1dU, 0xbe2cbe99be74f70cU, 0xbe214f6cbd0edb70U,
  0xbda68771bdcdcab9U, 0x3d00e440be13587eU, 0xbe9b69b63e534910U, 0xbd4a55e63d87242aU,
  0x3dbd1befbd22136cU, 0x3e37511b3d4da364U, 0x3eaad2293db561eaU, 0xbe1e3c863d6af6b3U,
  0x3e2fcec33ea66b90U, 0x3d97d4ac3d1668aaU, 0x3dd2110ebc62fae2U, 0xbd34274ebc6bd598U,
  0x3ec82e433e1fb9cdU, 0xbdf8ec043da50f3fU, 0x3e8d38fb3e79671dU, 0x3df3a7943de8dee2U,
  0x3bcb92b73e2e4825U, 0x3e86c95e3d5ec89eU, 0x3de63ff33c9618acU, 0x3d58ffe83dac6e5cU,
  0xbd965e95ffffffffU, 0x3dc4ddb2bd010e7eU, 0xbd48af493e1ec2c7U, 0xbd98be8f3df10c44U,
  0xbe25098cbe5957c4U, 0x3d9c98cabe107d71U, 0x3db713863d49cdd9U, 0xbbd1526cbe0b1d4bU,
  0x3ce205a03c6b10caU, 0x3e80f0c43df406d9U, 0x3e3666263d8f147cU, 0xbd7b36833c7becb6U,
  0xbd8ff5cf3c3ce115U, 0xbcb5ca403e636f97U, 0x3db45653bc86a5c2U, 0xbaef32423dee9a65U,
  0x3d3090d0bd8f3502U, 0xbe41ca85bc552667U, 0xbce3faf2bd1e6008U, 0xbd9be76ebdd9b482U,
  0xbd035e253c9d3038U, 0xbd8e05593da05deaU, 0x3b151d973e187545U, 0x3d5605f63c70c005U,
  0xbe457b673d90c008U, 0xbdbdb6dcbe7faf68U, 0xbe5eae55be0a816eU, 0xbe393d56be8b4d81U,
  0xbda11facbe09656bU, 0x3e0380f83c808deaU, 0x3e00c38b3d1a0768U, 0xbbde76c5bc88a8e9U,
  0xbd95d07dbe361de1U, 0x3e22742cU,
};


ai_handle g_network_weights_table[1 + 2] = {
  AI_HANDLE_PTR(AI_MAGIC_MARKER),
  AI_HANDLE_PTR(s_network_weights_array_u64),
  AI_HANDLE_PTR(AI_MAGIC_MARKER),
};

