/**
  ******************************************************************************
  * @file    network_data_params.c
  * @author  AST Embedded Analytics Research Platform
  * @date    Tue Feb  6 12:47:28 2024
  * @brief   AI Tool Automatic Code Generator for Embedded NN computing
  ******************************************************************************
  * Copyright (c) 2024 STMicroelectronics.
  * All rights reserved.
  *
  * This software is licensed under terms that can be found in the LICENSE file
  * in the root directory of this software component.
  * If no LICENSE file comes with this software, it is provided AS-IS.
  ******************************************************************************
  */

#include "network_data_params.h"


/**  Activations Section  ****************************************************/
ai_handle g_network_activations_table[1 + 2] = {
  AI_HANDLE_PTR(AI_MAGIC_MARKER),
  AI_HANDLE_PTR(NULL),
  AI_HANDLE_PTR(AI_MAGIC_MARKER),
};




/**  Weights Section  ********************************************************/
AI_ALIGNED(32)
const ai_u64 s_network_weights_array_u64[2400] = {
  0xbdfa85b0bd86d075U, 0x3d2d11a83cb7b85aU, 0xbcc088f33dfe23aeU, 0x3d56ab813daa8722U,
  0x3d96119e3d798be8U, 0x3ab78dfebdb275b2U, 0x3da2d370baeed465U, 0xbcb85750be07ba38U,
  0x3d0079933d574befU, 0x3e077d97bc3449cfU, 0xbdf106033c882fa1U, 0xbe40dd5e3c070e24U,
  0xbe0111b63d8df449U, 0xbd4266613d45bf02U, 0xbcb966763dcac82cU, 0x3dd81b43bded964bU,
  0x3da70778bd80ae1dU, 0x3d44eab0bd943c9aU, 0xbd122a9a3d17cdbcU, 0xbd76a089bac6f85aU,
  0xbbcbe4a5bd7deeeaU, 0xbe1bb6ff3abce5ecU, 0xbd4249293af03df5U, 0xbd3715ff3db5ea88U,
  0x3c034f9e3e35d87eU, 0xbd60eec2bdef5e34U, 0xbdd08891bdcc9c1cU, 0x3d8bc92c3d8e1579U,
  0xbe11a4123d449369U, 0xbe4ac316bdc5db9fU, 0xbd8c43e6bc925395U, 0x3b98fc03be0f65d5U,
  0xbd3382523d12a9c1U, 0xbd6e120dbdad7e69U, 0x3dcb61163e282a11U, 0xbd21048d3e165d12U,
  0x3d87ab41bd9de3c8U, 0xbdb9e4adbd84fcfaU, 0x3e1dcc663c25eef0U, 0xbd18c156bdd5fb6bU,
  0x3e53e238bdacf24dU, 0xbd0b982dbd513decU, 0xbdbc0deebd523b7eU, 0x3e4eac8d3e0994bcU,
  0x3dc8000e3ca23541U, 0x3e418815bd1fa7a6U, 0x3e0ce11fbdefdffcU, 0x3da70fcfbe4b551cU,
  0x3d1120d63d675c5cU, 0x3d1a26e7bddda795U, 0xbdb6ec2bbdbfe02cU, 0x3d93ff273dba3920U,
  0xbdb01bd03e7242aeU, 0xbc47774fbd951949U, 0xbcad33283dd42efeU, 0xbdc0ac1c3d75152dU,
  0x3cda67c8bd1a3d49U, 0x3be8ee793d1fbda8U, 0x3db4d0253d03c64eU, 0xbd8f7e53bd0a9171U,
  0x3cef7e99be3b3e72U, 0x3ca864383e3d332cU, 0x3d1efa963c7cfa1fU, 0xbe7258923d897ee9U,
  0xbd924389be3a3821U, 0xbdc3c5393e028289U, 0x3d836b703daf70dfU, 0x3ddbda7cbd3b8f0aU,
  0x3c9b963cbd977debU, 0xbe1a947dbd5cf2ddU, 0x3cb98df6be4306feU, 0x3d9654ac3d1128e0U,
  0xbd175b41bdfbe601U, 0xbe20a81c3d31567eU, 0x3dfbecabbe1431ceU, 0x3e0292edbda8e9fcU,
  0x3cc157b43d163da4U, 0x3e2530ce3d9ebdb0U, 0xbd1d0b033cdc0cf1U, 0x3dde44b7bd0469dbU,
  0x3dc936be3e0aaac7U, 0xbe39e79ebdaf0a74U, 0xbd356daf3eab78d7U, 0xbdf5e2b5bbb2c175U,
  0x3d8860c1bd4c79c9U, 0xbb1d32f83e0ed1d8U, 0x3be3251ebd907356U, 0x3dd09f60bd5f1f78U,
  0x3b701610bddba138U, 0x3d06a1aeba2254e5U, 0x3e24df95bdab7722U, 0xbdfafbb0bb88f4b4U,
  0x3df05937be2296d5U, 0xbd50faf13dc494cbU, 0x3d91ad26bad1b3ceU, 0x3c362c863d82b2daU,
  0x3b3e7ad1bcf53e58U, 0xbdd9a8c7bd500576U, 0xbc082682bd8ef436U, 0x3b9e04e73e5d3cdbU,
  0x3c32ca51bdfa730aU, 0x3cbfc2fd3e2516f0U, 0x3d480d90bcacf097U, 0xbe20123abce7c475U,
  0xbc9a79a6bb3053c9U, 0xbcb82cd73e000de5U, 0x3d835d313e25ad39U, 0x3c883c063d80e2c1U,
  0x3d6dc13bbd441b81U, 0xbe415140bde31aadU, 0xbe28c5b5bd3e8b68U, 0xbd96344cbcf19e70U,
  0xbd27c2bdbde600a0U, 0xbd3d66f5bdd145ccU, 0xbacda2933e095196U, 0xbd6766a1bba9f547U,
  0x3e3fb3d7bddef10aU, 0xbd5e5401bdd99a43U, 0xbd9a043abd678fb5U, 0x3de0e35bbcaabe78U,
  0x3c7f5fc1bd5e641aU, 0x3c93c2bc3c9ee745U, 0xbe3e082abd52c27fU, 0x3d9d4fa33e19a981U,
  0x3dffe6423d9c7bf0U, 0xbdbbbf00bc2b6111U, 0x3dda39ecbdb180b5U, 0x3b89e6a43d9238d2U,
  0xbd9ed35abdc271bcU, 0x3e9fed98be10d275U, 0xbd74156c3e13fb9eU, 0xbe5a2a3f3dbc34c4U,
  0xbd961eeabda40739U, 0xbde02660be10b098U, 0x3dcdee09bd2b2a62U, 0xbdbf3491be09d4edU,
  0x3e738cdf3e29d14cU, 0xbe2c96943d4298e5U, 0x3d2755043d34e47dU, 0x3d58783fbd6dd748U,
  0xbe178e623b3fe9dfU, 0x3ce3bd91bdc24b4bU, 0x3e0e20b5bdf3b923U, 0x3d8619d3bd0ed2e6U,
  0xbe5dcfeb3e0ed2aeU, 0xbd279752be4c6db5U, 0xbe588d7ebb8eb081U, 0x3e21bf5abe147e96U,
  0x3da92f91bdb084b2U, 0xbe48af66bd528936U, 0xbd8238623e2a1abdU, 0x3a1d3115bdd482abU,
  0x3d0cd5633d942208U, 0xbd4a1b20bd545e77U, 0x3d6456703ddeb489U, 0xbda4f8ebbd345274U,
  0x3d5cce7c3bf91c12U, 0x3df43899bb5e8e8aU, 0x3deb938a3da13c3dU, 0x3d166f563c8cce9eU,
  0xbd671e38bdb4fdf4U, 0xbe01bf4ebdbb6ca2U, 0x3d8587693dcfd9f4U, 0x3a097175bd0b1481U,
  0xbdd06b38be4073c2U, 0x3df174f8bc2cbbdbU, 0xbd8a23a43d09088fU, 0x3d1e45c43d16be3cU,
  0x3c9dde1ebd05696aU, 0x3e34a7d43e53bc20U, 0xbc8bc754bdcdf0f8U, 0xbda439b73e40ededU,
  0x3c13e70b3d7364b8U, 0x3c6e06693de508b0U, 0x3dc9d58dbcc16f91U, 0x3e105a61bde0b6fcU,
  0xbd3295ec3bf4d52aU, 0x3d5a491ebd2020d6U, 0xbdae416abdb599eeU, 0xbdc864d73d80d447U,
  0x3dd9b18cbe45f7ceU, 0xbe0511cfbd5fd35dU, 0x3e6a0d953d4c134fU, 0xbd6a7ae53c5b51e9U,
  0x3b1eba293e36740bU, 0xbe14189fbd2b1faeU, 0xbe3cd2783e5e834bU, 0x3e1f35a93e27ea76U,
  0xbe4bfdd43dc49a6dU, 0xbda0f2823c52c1acU, 0x3d1228d0be01ba8cU, 0xbc455c77be73a29cU,
  0x3d26d66cbb84c739U, 0xbd9e59563d7f000aU, 0xbdecfd703c41b9c8U, 0xba4f0db7be4f2349U,
  0x3cc823013ccf7993U, 0x3e636954bda65f05U, 0xbe371542be8c1699U, 0x3ca60ab2bda0ff19U,
  0xbcc0531b3bc196b0U, 0x3e81aae13b5796cbU, 0x3e21978bbdd1680fU, 0xbe3230e4bd4b53d6U,
  0x3dbb7078be933328U, 0x3e56df7f3e53f37eU, 0x3dbc2d99be227c51U, 0xbdbc30b23e5d48ddU,
  0xbe2a05cabc3ceaeeU, 0xbdaa0901be96010bU, 0x3d86a638be4d30caU, 0xbc2cb1383e8f15e9U,
  0x3dbb4d943c169bfeU, 0xbe70dcf0be2dcb7bU, 0x3e92ed14bd87a05fU, 0x3c2643023dc95b8cU,
  0x3cc806ca3e1748d6U, 0xbd336e6f3d80ce84U, 0xbdb6caa93d1f351fU, 0x3e12fa5b3e37a47cU,
  0xbe7fc3f63d74d83dU, 0xbdc4734d3e23a8e6U, 0x3d91f4233c8735e5U, 0x3d13b175be326febU,
  0x3e0bd45d3d919131U, 0x3c9fcf433d701c59U, 0x3ddd1a63bc37e128U, 0x3c797005bde840e3U,
  0x3e1875773e6fac94U, 0xbcc70b183d36037bU, 0xbd076f623e06fb94U, 0xbbda9af3be07f103U,
  0x3d9582cbbe042ff6U, 0x3df904b83cac9711U, 0x3dfbcc333d1605ecU, 0x3ce38c233de5d163U,
  0x3d5f35a5be534335U, 0x3dbc26563e322463U, 0x3b9c0fc03dbb60f9U, 0xbcfaee773e14dc67U,
  0x3d8e756a3bcecce6U, 0xbd714463bd8c1013U, 0xbd836c913e169d0dU, 0xbe0118c13b00cd7bU,
  0x3d60c7023dfd03bdU, 0x3d2dc540bd164bc9U, 0xbc6f74bfbcc733ceU, 0x3dc8a6cfbdcf1cc0U,
  0x3c9e4dcfbda5ceffU, 0xbc8385b5bdf40068U, 0x3d6d3615be157b30U, 0xbe5945463d68260dU,
  0xbe0bcc01bd13630aU, 0x3dbcadbebc46abbfU, 0xbcc8a60fbe008817U, 0xbdc7e9463df34047U,
  0xbdc7cd143de65b86U, 0x3d4450833cda1debU, 0x3ccf5e37bdab4f63U, 0xbb4e03443de9474bU,
  0x3e3ca48fbc4bcb75U, 0xbdce3d0dbd9e86cbU, 0x3d67c7cc3da74a2aU, 0xbe22ab1d3cb66234U,
  0x3da32b52bdd66288U, 0xbdca5e4b3e0b51abU, 0xbdd013b43c106ba5U, 0x3e456725bb9ff11dU,
  0xbc0cd03c3d2fb6aeU, 0xbe04e510bc917fd8U, 0x3c8d185abd849e24U, 0x3cfebc4bbbbdcecdU,
  0x3d825791bd963173U, 0x3df7b2023d5b8982U, 0xbe1b441a3dc009aeU, 0xbdf9003d3c58deb9U,
  0x3ca5b75fbd8e9c07U, 0x3e03345cbda1a1cfU, 0x3e19a34e3b4b1cc1U, 0x3e6c3255be1be1d0U,
  0xbda5499fbdb1252eU, 0xbd28acc43b2da169U, 0xbdcd5c62bca98256U, 0xbc6155653d3c509bU,
  0xbe2ec918bbb40818U, 0x3db6946bbc45475dU, 0xbceb0df3bd4b438fU, 0xbd737bd6bd07470fU,
  0xbe14f0503c9e5d40U, 0x3b55813bbe7c4660U, 0xbe133754bc245706U, 0xbe2191273e4c1d24U,
  0x3c686d34be316d1aU, 0xbdf10a35be71a886U, 0xbd5de6053e23c5d9U, 0xbd8776963d0afd7fU,
  0x3e3681ad3dc03e79U, 0x3dba1ad23da757a1U, 0xbd88159b3e199d03U, 0x3d71580f3e3ca82cU,
  0xbdf2ed58bddb3af1U, 0xbd0e1e6b3d64d4caU, 0xbd99242abe5b7a11U, 0xbe6a686a3a8d9fafU,
  0xbd3271d5be2597afU, 0x3c69bcd5be10f0d9U, 0xbe0749e83d0d9248U, 0xbcccf20e3b90ab18U,
  0xbd5adb7cbe7ef63cU, 0x3d20dde7bdfa028dU, 0x3e59f5063c7f0789U, 0x3c0dd570bc1adf93U,
  0x3e116bbe3dbeec6bU, 0xbda6795d3d0e3a33U, 0xbe827ababe234339U, 0x3e8a29e43c2a2a79U,
  0xbd8cc5503db662c9U, 0xbdbb2e2d3da09a62U, 0xbdcef847bd83baeaU, 0xbdb79b60be0fd01cU,
  0xbcec582a3c44a187U, 0xbe3127a33d8cfe98U, 0xbe3e7438bd3ac530U, 0x3c5a3243bda7ee79U,
  0xbc7e0f103d704bf3U, 0x3d659d1a3d5e2f34U, 0xbe2eea8e3dbf3149U, 0xbd248e3ab9922cf1U,
  0xbd4bbb15bdfd61f0U, 0x3dee7dc9be38d7f9U, 0xbbbcc488bd755098U, 0xbe39bbc5be0fba52U,
  0xbd0953c2bd868010U, 0xbd1bebba3e8f0328U, 0xbcbec47bbdf39244U, 0xbd8a05b0bd8e7130U,
  0xbd21ba753d036f39U, 0x3d6f2ababcb60003U, 0xbe1cd517be069f8fU, 0x3c8808a33dc93195U,
  0xbe338176be22d1e4U, 0xbdcd06a7bc1928a9U, 0x3df5851ebdd15d1aU, 0xbd4460e63c69e02fU,
  0xbd574958bdb0a764U, 0xbe3ab52f3dc7292eU, 0xbe3c3e5bbe1af264U, 0x3e757382be600950U,
  0x3dd5b8ab3ce5d615U, 0xbd3eea263de8def6U, 0xbc15ae7fbc8d2d36U, 0x3ce00d73bd9f107bU,
  0x3d1c72403d538809U, 0xbded2a993d184631U, 0x3d0a4c18bd19209aU, 0x3d9ba1c2be383fb4U,
  0x3d63e0a2bc317467U, 0x3db294e6bde4e28cU, 0x3abed546bc189213U, 0x3df9ec11bd81eb23U,
  0x3ce47d13bd049031U, 0x3b4b2c4dbdc1aca2U, 0xbd83743d3e187e96U, 0xbcb1abf63e17427eU,
  0x3e0a4975bdc017ccU, 0x3e0dd0543d041387U, 0x3e0d7f3a3d1a9e55U, 0xbda11a85be33dc9cU,
  0xbdb533283da79e45U, 0x3e16b046be7ea3c0U, 0xbb842d6ebdbfc4faU, 0xbe003f6d3e80f62aU,
  0x3e261ce1be09f1e8U, 0xbdeae874be0f0ec7U, 0x3e2759e93e3b9c6aU, 0xbe125b063d07eef5U,
  0x3de4a9c33e5ae834U, 0xbe04c3d13d921219U, 0xbe2ce473be12e67cU, 0x3dfcc69b3dc06fe4U,
  0xbe52083e3d610e14U, 0xbdc15e3a3d2e02e7U, 0xbdcf998d3db3cb36U, 0xbe60d972bd9ef779U,
  0xbd260778be2464c5U, 0x3d421b64be13ad0eU, 0xbc8a6682bd2fc116U, 0xbddf66e73e7f3e82U,
  0x3d1e6e3ebde3f52eU, 0xbd213f49be560872U, 0x3e4125a33d0c1165U, 0xbe9cca8f3dc084c5U,
  0x3e3195fc3d6870faU, 0x3d8e1cbd3c9ab712U, 0xbdc307b2bdba87b6U, 0x3c36da433e174cc9U,
  0xbe309b583d8e6205U, 0xbdf97c193d29af59U, 0x3d5fa16cbe0b0e49U, 0xbcd9fd03bdf0249dU,
  0x3de1cee33e46bc21U, 0xbdb1d76b3d3c28abU, 0x3e631bd23e74a9d0U, 0x3d88bda5be3e34a5U,
  0xbd10a3debde4c816U, 0x3dc28336bb74fa21U, 0xbcfda7d2bd544ba5U, 0xbde35519bda38c3bU,
  0x3d9a98ba3c0790bbU, 0x3a948ae9be0d09a9U, 0x3d932d19bd87ab42U, 0xbe170271bd68f97bU,
  0xbdbd422bbc4eaa41U, 0xbd548c8f3d82780dU, 0x3d27ddd7bd4393c2U, 0x3da2f0afbdf73398U,
  0x3a1e8cb8bd4d3fbaU, 0x3d613c92be638ed7U, 0xbd8b760e3cc4beddU, 0xbb7c6a083d8936baU,
  0xbc1147eebd029971U, 0xbe46b3ee3d46b5d9U, 0xbcb88ef93d325db8U, 0xbd1beb583d27ed1aU,
  0xbd7683563e09bbb5U, 0xbe31150e3da5d859U, 0x3cda71763e19153fU, 0xbd5343483e3f79bcU,
  0xbd086af6be3dd3adU, 0xbdb3b8b93dac5028U, 0xbe33e65dbdff2b51U, 0xbe19f8f4be2cf19cU,
  0xbc1a3d20be3e87eaU, 0x3c473493bdd52bc4U, 0x3cc9a3823dd97911U, 0x3d8799563d260eb3U,
  0xbd86ea3d3d291f73U, 0x3d711167be59d3afU, 0x3e15872bbdbc921cU, 0xbe3867d3bd93a152U,
  0x3d297e043ea9cb91U, 0xbda4010f3d04c464U, 0xbd484e9ebdc3ddceU, 0x3e7ddb3f3e7f92afU,
  0x3dace9843c06ba3eU, 0xbcd1dd353cf29524U, 0xbc4c03353e0c9f52U, 0x3c54a2123db5185dU,
  0x3e2c96a6baece58eU, 0xbcafd97b3c5f4c6aU, 0x3dd89a67bd8c4faeU, 0xbd95351abdc79df3U,
  0x3dd36266be0e8f27U, 0xbda8f511bc6d41b4U, 0x3dba50c0be4513f1U, 0xbdf0a301bceb9501U,
  0xbe1c85353ce2b713U, 0x3baa9630bd469ae2U, 0xbd7250d13dc05d00U, 0x3b828a9dbd28bf5fU,
  0xbbe0d55c3dc84f42U, 0x3da5078abba368bfU, 0xbd0ab905bb767809U, 0x3d21060bbd472c68U,
  0x3b4dbc933dde2270U, 0xbe50b7dabd0d8f16U, 0xbe012d973c979df3U, 0xbdae3bc13db1fddcU,
  0xbc100d2bbdde794bU, 0xbdd08fe93caa5a51U, 0x3e5fad823de283d4U, 0x3dadaa3b3db3a641U,
  0x3e6703783e5be102U, 0x3dbfe193bdc2bc2dU, 0xbda84e06bce9f010U, 0x3c686cf7be4734b9U,
  0x3d9a66b5bd592e84U, 0x3c5c33bc3dae0f86U, 0xbc448ffcbe135ac2U, 0x3d39cea7bca87f6bU,
  0xbd74164a3cea5fc2U, 0xbe82f079bc66b975U, 0x3e2deca13da19728U, 0xbe269eb03db5ec4aU,
  0xbbcb30bc39ea8cc1U, 0xbd9efd0bbdc1bfffU, 0x3e4673ecbd027afbU, 0x3d5a2ed5be2db702U,
  0x3ba905b3bdfdad7cU, 0xbce801c5bd77b7b4U, 0xbdcd92333cb82286U, 0x3d856243bd9c8fc6U,
  0x3da5b8443e049c95U, 0xbe1239913e7d9dd8U, 0xbddcdd293dbe61feU, 0x3c117112bd65503eU,
  0xbd3908fabdee3caeU, 0x3dde9634be27a31cU, 0x3dbab0babd159ec2U, 0xbe163730bd33d82aU,
  0xbe31de86393da3e7U, 0xbe06aba3bd94f127U, 0xbdac31233c94e02cU, 0xbe59493b3d1330efU,
  0x3e585ac23c9dbbb3U, 0xbe19887e3cd534bfU, 0xbd9de0223b0075faU, 0xbd61363f3d5f40b0U,
  0xbdc7e91c3d4ebc42U, 0xbdf77c623e548df2U, 0x3dd216793d67a161U, 0xbdb9bef13d8fdc89U,
  0xbc60828839c2a80eU, 0xbd9052b0bddd2650U, 0x3c632bcfbd5d8adbU, 0xbc77b94bbd394e10U,
  0x3db00400bd897f0cU, 0xba82e4de3cf2b0ffU, 0xbdf1f01f3da537f1U, 0xbdf569a4bdb474d2U,
  0x3d9a94663d29cff1U, 0xbbc98d04bdab5b7dU, 0xbce549f83c3fa8acU, 0x3e14d330bd740439U,
  0xbbb934d53d7b6d88U, 0xbe22ac68bdba423bU, 0x3cb45b0cbd880115U, 0x3d0eb0fbbdd55310U,
  0xbbe85c8bbe23932aU, 0x3df1020fbd085d4aU, 0xbe117dbbbbf5b4ffU, 0xbe483dfd3e102900U,
  0x3cad03d6bdd97f35U, 0xbdd077083e292b66U, 0x3c8968fe3c9c9f70U, 0x3ce0d9af3de180efU,
  0x3dcdcf313c880acdU, 0xbdd52fffbc8e8813U, 0x3d3a9b7c3bb91beaU, 0xbad6103b3e5151eeU,
  0x3d3588e93e8580b1U, 0xbdcb6547be125d49U, 0xbd8a989dbde38593U, 0x3e0979d5bd585588U,
  0xbe5ea710be4a56a6U, 0x3d66c5d6bd70bb31U, 0xbd92920f3d9d2042U, 0xbd7098613d824135U,
  0xbce15743bc5d64c3U, 0x3cb6ec493d5e1919U, 0x3db7004e3e201cabU, 0xbe4aa1debcf1a459U,
  0x3da643253cc177f1U, 0xbdce11053cfdc45bU, 0xbd6238f63e2e9404U, 0x3e0535003e299006U,
  0xbe3ff6c03d98038aU, 0xbd03a4c03e394e14U, 0x3ea1a8d1bdeba32dU, 0xbd0f5cb93d86f286U,
  0x3dbafa0c3dd07068U, 0x3b8aa88f3d31f628U, 0xbdd6beca3dbc2d8eU, 0xbcbf7924bcc092c5U,
  0x3d3a73a33d9dd918U, 0xbdc2cec3be10fda4U, 0xbc5dc2053d8a97f2U, 0x3d01a7f53e02e269U,
  0x3db527343d2cae07U, 0x3d2baa903c216dc4U, 0xbd30a6c73daaf59cU, 0xbdb21bbb3d366c1bU,
  0x3d3171e53d2a4f40U, 0x3d6f88523ddea7f5U, 0xbd8ac6253cb9a9acU, 0x3d7e0bb23e549b59U,
  0xbd4b1c4cbd029aa5U, 0xbd65b977bdbb170eU, 0xbbd3c29c3d9784afU, 0x3d1ce4fb3c3d5447U,
  0x3c783c58bd7e90e5U, 0xbda968733e19c0c0U, 0x3d0177c03d875006U, 0xbdcc9c3fbd52f3b1U,
  0xbbf708e63d858939U, 0xbd50441f3cf217a7U, 0x3d0725913dea13e1U, 0xbd945c853c60566bU,
  0x3e80292b3c7b86f5U, 0x3e2bc6753d9a6d3bU, 0xbd413671bda6b276U, 0x3d22e133bd6ef244U,
  0xbd9e4f403d7a7d02U, 0x3bebfb4ebb3653a5U, 0x3d0f54e1bcbb0c41U, 0x3c456968bd7568aaU,
  0xbd8067f73da02f8bU, 0x3d9cfa2e3d7acdccU, 0x3e2890c83b911e1dU, 0xbd44ca13bbca6d0aU,
  0x3d0e23acbde960d7U, 0xbd7955a93d8ebd2bU, 0xbd981718bcd3754eU, 0xbe14d09c3e20b115U,
  0x3ca7f9023d9845bdU, 0x3dcee8f0bdc68050U, 0xbdefe386be215aadU, 0xbc6b5f2b3e0d3e64U,
  0xbe3132d6bcc44d22U, 0xbe098cb0bcdecd69U, 0xbd142521bc3bb404U, 0x3d768a23bdec83b1U,
  0x3e0edfd6bd420cb7U, 0xbd0f0f453dadb14dU, 0x3e154cbb3e865cc4U, 0xbe83dc183df9bdb3U,
  0xbdf5db35bc3ace0dU, 0xbdb425c03e60e168U, 0x3d9ba10ebd971ea8U, 0x3df300db3dbac1eeU,
  0xbe1277d23d5284eaU, 0x3c5c4013bdcf0a1eU, 0xbe90241a3d8db16bU, 0xbddf281dbd844c42U,
  0xbd8bfa16be19809cU, 0xbd46ff0fbda252efU, 0x3da5f2b63c607282U, 0x3cb0a4743d8f24bbU,
  0xbe0ae2e0be382b27U, 0xbde9c9483dc4c5f8U, 0x3e4aa171bc80624bU, 0xbd6a65133d4e6b04U,
  0x3e1416c93e438792U, 0xbe5818bfbe3258e9U, 0xbd1c74f3bdd8b9abU, 0x3e08d8b33e25db66U,
  0xbd6979ccbdb08db1U, 0xbccfda52bdd369b4U, 0x3e0910713d02ae95U, 0x3d882d923e679ed8U,
  0x3e417897bd905fbdU, 0x3dc84869bec2b452U, 0xbdfb3e453c9dedaeU, 0xbd79af8f3e4e7dabU,
  0x3d49dff9be77fe67U, 0xbe178743bd98727dU, 0x3e3f3d073c44b986U, 0xbe155469bdae9be0U,
  0x3cd51f49bce1fca1U, 0xbb8292153d1097eeU, 0xbe09e5993d872edbU, 0x3e1576af3d9a8694U,
  0xbdd9b8bd3e6728d7U, 0xbd5bbb6f3d9fd24fU, 0x3d824238be0fcfaaU, 0x3e00591dbd7ea76bU,
  0x3d8edecebd4b86e7U, 0xbdb97cab3c901ca1U, 0x3e515184be0dfa1eU, 0x3c85990d3e006a7eU,
  0xbe20293abda2ac36U, 0xbd5854323c87838bU, 0x3e17a7373da56ed7U, 0x3ea71bb53b86dc4dU,
  0xbd4c44edbe1581e3U, 0x3df1b3dfbd61bdfbU, 0x3dfc83f23b83608aU, 0xbd952caabc3a7a63U,
  0xbd570e3ebdd89486U, 0x3dbef560bd04b17dU, 0x3d6b71883dac61e8U, 0xbc2189623dbefaf9U,
  0x3cec07e53d37d028U, 0x3e121711bc414d47U, 0xbdd1f19e3c24f72bU, 0xbd8f9b3d3d26b415U,
  0xbdff21d63b014420U, 0x3d963a0bbde7f13eU, 0x3dcf27a23d52c49eU, 0xbdaaa5973b57a740U,
  0x3e1d15a33d8326e0U, 0x3e3a4676be63f4e0U, 0x3cec602d3e16f99aU, 0x3c34e3a63d94ddf7U,
  0x3db006e0bd714418U, 0xbc7ea7103dad4bbdU, 0x3d9946e6be92803fU, 0xbd97140fbd0d9045U,
  0xbde76d043ca8d078U, 0x3e0060f3bdb1979cU, 0xbd0765f33d459b2bU, 0xbd7e0d653e46855dU,
  0x3d9ee2bbbe8519dfU, 0xbe4bcd15bdcba0fbU, 0x3e0716b53d780e8eU, 0xbe01cb303daaf802U,
  0x3d1e3d8c3a4e8c00U, 0xbcf4e64abda498ecU, 0xbd110a583d8e025bU, 0x3e4043203e19b704U,
  0xbcd7d79c3d07d720U, 0xbe0593093d325454U, 0xbe1f31e33d031483U, 0x3c80474bbdd18a9dU,
  0x3e11e9433e416067U, 0xbd84e120bbd7b882U, 0x3e81b863bcf3d83bU, 0x3d71290ebe5c8699U,
  0xbc96b5723d91f7f4U, 0x3e4e43b5bd913d08U, 0xbc5d2f8fbd194d83U, 0xbd9bbdbfbcbab391U,
  0xbd2b61423caaee0bU, 0x3d05b3d7bdca97efU, 0x3d98b9853ce54955U, 0xbea86d19be2e035fU,
  0x3dfd3084bd4da006U, 0xbc4d2c8e3de5af3fU, 0x3aa81b6e3c163f11U, 0xbd1688983dd07eb2U,
  0x3cb258bdbc138408U, 0x3db417e1be533325U, 0xbd942252bdb7a124U, 0xbd5689b33db425e5U,
  0xbbac4876bcee52f5U, 0xbda9a568be2d4112U, 0x3e89e9a33deb51a0U, 0xbd9e63ff3c7145ccU,
  0x3d6b131a3dc4e4a1U, 0xbcd6ce163e40655bU, 0x3903a9ba3dd884a1U, 0x3e8a05133e17c88cU,
  0xbe528aba3ea09351U, 0xbde61447bca1e5fcU, 0x3c98335b3c6b202bU, 0xbd5d11d1bd0958a2U,
  0x3db5c7463de757a5U, 0x3d8ed44dbdc8dff3U, 0xbcc67592bb402438U, 0x3dd11ac1bd97ddf2U,
  0xbd8b36e0bc3a2276U, 0x3dd3d8c9be1b9a4aU, 0x3d349e733d85e14dU, 0xbc81f4f73d1f3d29U,
  0xbdde6c7fbe1aa283U, 0xbc8649f6be3997b3U, 0x3cd90d17bd898b0bU, 0xbe861ad63e040964U,
  0x3d849cafbc1e5befU, 0xbd4549553c46af25U, 0xbe05ea8a3c6f0be8U, 0xbe21dd093e3e8731U,
  0xbc93a9f33d5060afU, 0x3e1894293c299670U, 0x3c34340f3e07e7c6U, 0xbdae2a1a3d6e0233U,
  0xbc52e3eebd865bbaU, 0xbd758a63bbcaef42U, 0xbe172ba63b48462cU, 0xbcd25d8a3d46a9bdU,
  0xbd9f667b3d749906U, 0xbd8d59febc994b0aU, 0xbcd65a93bdd1b6b1U, 0xbd8c08c0bc3931e9U,
  0x3cff6d3cbd9da4c7U, 0x3ddd581c3ea19e6aU, 0xbdc656793d4f85b5U, 0xbd0b5a34bc876f42U,
  0xbdd5f53dbd541682U, 0x3da8a2f7be4d6f00U, 0xbd2cf4bdbdc2a07dU, 0x3dc4f0793d12482fU,
  0x3e888a33be32351aU, 0xbcd92f37bd835934U, 0x3e2b98aa3de4d6ddU, 0x3bddccd93ea2f912U,
  0x3ced9612bd250189U, 0xbd812a773d58f093U, 0xbdac79cbbe1b65e5U, 0x3dcc20153de9dd39U,
  0xbd797cfe3e000354U, 0xbde3b2103de1fab6U, 0xbdac58093dec867bU, 0x3e08f8aabe09598aU,
  0x3b24c2933d0b6e7eU, 0xbd32a41f3c3309e5U, 0xbc57fdf3bdb32784U, 0xbd56e053bcf53fedU,
  0x3d9e20ee3dc9478bU, 0xbca76915bdafab20U, 0x3b1b0312bdd54a22U, 0xbd3d7f983d8d3360U,
  0x3e07a16e3cc824efU, 0x3d5d2c693a881800U, 0xbd1925f83d2aacfaU, 0x3dad10c33e38b029U,
  0xbc95a2c13cae1dfbU, 0x3cf59d773b8c27b4U, 0xbd3253bb3cc05b69U, 0x3d2dc7d83da35128U,
  0xbd14da123de62007U, 0x3dc2bfe1bc3d650dU, 0xbe0a2897bd9a462aU, 0x3c5a6d003e9386e6U,
  0x3e28aae5bd0b98f6U, 0xbdb86ea1be21747cU, 0x3d96b5173dbd1c5bU, 0xbe587f1a3c9698b9U,
  0x3e6f30ce3d4498f9U, 0xbe00d0873dd78558U, 0xbbe46d38bd3f0a98U, 0xbd9d72103c7a2558U,
  0xbb251b263e4194b0U, 0xbde365393dc283f1U, 0x3d65d9e13da44a5eU, 0xbdf9897fbdad9cdfU,
  0x3d64dcedbe2e0b13U, 0xbd9706abbe4f4d95U, 0xbe39db733c8c393aU, 0x3dc7f37b3e1c513aU,
  0x3db86eadbdae68c9U, 0xbdf540c2be1d01c0U, 0x3dab1edd3dbe8febU, 0xbd5717493d66fae6U,
  0x3e4456fcbcc8056eU, 0xbd3b82153e24646bU, 0xbdca446a3ddee734U, 0xbe09ff75bd3fdfbbU,
  0xbcc50f403dfa5673U, 0xbe161d2e3d461ce6U, 0xbc6e87d1bbe4bef7U, 0x3d3ffc0ebcfde01bU,
  0x3e39e0edbd84291bU, 0xbc92b915bc98ff63U, 0xbbec7344bdf31839U, 0x3dd64acabdf3e5dcU,
  0x3e07f864bcf19736U, 0x3dac3516bd592be9U, 0xbdff7e233e225ac8U, 0x3d0ae6d6bda10468U,
  0x3bb7d40bbd864830U, 0x3e137ef23bdf2c4bU, 0xbca5e5fbbd01e8b7U, 0xbe1f3119bc8c0c62U,
  0x3bc16597bd87eacbU, 0x3e549c703c18e527U, 0x3d52b5ef3e05f608U, 0xbd784a913d0fdfbaU,
  0xbdf025ae3d6c85b3U, 0x3de1b141be401b52U, 0x3d2bb6f5bd858519U, 0xbd6fc3283e8c5bfcU,
  0x3db9a178be222de0U, 0xbd877546bc0ab4ddU, 0x3dda43fb3daea5deU, 0x3d7627653c554ac0U,
  0x3e27c5773d90fa6cU, 0x3e0b233c3d904137U, 0x3c564eb1bcc477e3U, 0x3e1b69d5bdb8137fU,
  0x3d66a4853e80bc67U, 0xbd3c2d1ebe60eda3U, 0xbc2cfa68bd961ffaU, 0x3e33a639bc1cbd78U,
  0xbccbd4e13c776734U, 0x3df1e03cbd0ef529U, 0x3b793a643d36ceadU, 0xbdae5d8dbd369421U,
  0xbccbdbcabe10e052U, 0xbdca9776bd424545U, 0x3d937f75bd197084U, 0xbcf3d5473db88a59U,
  0x3c9ec38cbd90cc29U, 0x3e1d6636bdaabb02U, 0x3d09e7ebbd996726U, 0xbe0345413d9452acU,
  0x3db387ac3e04e704U, 0x3e6634b33dbc7df9U, 0xbd98831b3d976ad3U, 0x3e124727bd8ab9abU,
  0xbdb08462be66f456U, 0xbda3a802be223909U, 0xbd3842bdbc76b771U, 0xbdc8c1023dee02acU,
  0x3e175f9fbdde6a6fU, 0xbded5465bd08739aU, 0x39d7c6eb3e8531fdU, 0xbd7a830a3e47cf44U,
  0x3d8b67313dc6da4dU, 0x3d6c2d1f3d8b39d3U, 0xbe1cfe08bcc96145U, 0x3d9911a6bcf5a178U,
  0xbd326967be0f622eU, 0x3da34544bca719cfU, 0xbe27833b3dd5ce21U, 0xbe1d089e3db3fb8bU,
  0xbd889b09bb9ac1a9U, 0xbdbaa047be1ae9f6U, 0xbc81872f3e754370U, 0xbd1cf2e83e58f2e6U,
  0x3e3ad98ebd917abeU, 0xbc98eabcbe0f2960U, 0xbd1c7104bd896374U, 0xbe0c491e3e3795f0U,
  0x3ddcd86d3e051207U, 0xbe163e143c9cc74fU, 0xbe3720673e38cc0fU, 0x3db711973d914199U,
  0xbe4a86953e2a4340U, 0xbd5ff94ebdcb8a4eU, 0xbde9d13cbce8dd4fU, 0xbe5c78aabd8bc478U,
  0x3e0c61763d95b146U, 0xbe1dac35be3e9906U, 0xbb6788fc3e1b56b1U, 0xbd8cd187be24b004U,
  0xbe35cefbbd1717c1U, 0xbddce28fbcf21b8bU, 0xbd10458c3afd4ef7U, 0x3cd45a2dbd8623daU,
  0x3dd0fd70bd2cab68U, 0x3dd448943d947672U, 0xbe02abc3be106735U, 0x3cc0b6623e0a7a6dU,
  0xbd57d7dd3df036b3U, 0x3a71c81b3b6a0e57U, 0x3dcb7752bdbce186U, 0xbe285639be206829U,
  0x3d88a5763d24c7ceU, 0x3e1da2a7beaac6aaU, 0xbda7600a3da67521U, 0xbda70a51bd74b581U,
  0x3e020c67be737492U, 0x3d87bab5ba3c24baU, 0x3df9951eb9f0aa6eU, 0xbdd966343e7c0d4fU,
  0xbc5507d63d9edf11U, 0x3ca490ddbc54a3c6U, 0x3de24fb83cb38db7U, 0xbda21c783c39b721U,
  0xbe0f0beabdc15960U, 0xbc68accabd5900c3U, 0x3e0d3a873d4a3311U, 0xbe193afd3d848d66U,
  0xbda2bf03bd403fedU, 0x3c07e4e2be1fc7adU, 0xbe3386b1bd7439a2U, 0xbd5741683e30de99U,
  0xbb796495be1d92cdU, 0xbdcf07abbe29bacaU, 0x3de1c8da3e0e4db7U, 0x3d26710abc52274fU,
  0x3d3fd0563c33ae05U, 0xbe1b1b69bce5a92dU, 0x3ded8b223d867380U, 0x3de9b81a3dd52bc9U,
  0xbe4757da3cfc1afcU, 0x3dada94abca402e3U, 0xbdc7a39a3d17324bU, 0x3c9ae040bdd98012U,
  0xbd0423a53d8d2ebcU, 0xbc530c39bd5e2a7fU, 0x3deb4c473b7ac45cU, 0xbe3f6214bcab6365U,
  0xbcfe69bfbd348e2fU, 0xbb5782e0bdd4de99U, 0x3d61ef053c184a0aU, 0xbe3f2d733e27a9d0U,
  0x3d537007bde70811U, 0xbdcaa3c13e25267aU, 0xbd40cf883daf302bU, 0x3d277f74bb492ee9U,
  0xbd597f5a3c9429f4U, 0x3d03bcfb3db46e6fU, 0x3e2ebcd1bd47be32U, 0x3dd9e3f7bd9c9b04U,
  0xbd953c9bbda28f37U, 0x3d97a1543dfc8bffU, 0xbd18455d3e6050abU, 0xbe265b7b3b78e81bU,
  0xbcb400a4bd8c9884U, 0x3a923cf2bd80219dU, 0xbd50130f3b3f0591U, 0xbd5b737f3dd8abddU,
  0x3d504dadbdea4959U, 0x3e2d90a8be2f7c61U, 0x3dba8645bd5e6e0bU, 0xbbc578ba3e0ec933U,
  0x3da37ff23d351f57U, 0x3b6ed5df3dc1598cU, 0x3d94e0483d84fbecU, 0xbe0e7ecabc9a59b5U,
  0xbe3b1bb53c93e304U, 0xbc61ec9cbccd730eU, 0x3e28b191bdb96db0U, 0xbd536d17be060370U,
  0xbd3e81a8bd5a7c1dU, 0x3cf82566be587ca9U, 0xbdb3ca7dbdf8cd24U, 0x3da6316cbd96285aU,
  0xbca18b28bdf3219bU, 0xbe4ddd5f3d89937dU, 0xbd0de708bd382968U, 0xbd9e917bbde31e6fU,
  0x3ba26007bd5db277U, 0xbc33c1e33d2216a8U, 0xbe435fdd3d03a2c8U, 0x3e0a23903e05415eU,
  0x3d0d78563dc980ddU, 0x3e4ae464bda0d5c5U, 0x3b96d5583deab091U, 0x3cf08ecabdc4a2f7U,
  0x3dcb4829bd297256U, 0xbd89e4a83d97b528U, 0xbd0b214d3df130deU, 0x3d1948043e1c78c6U,
  0xbdb29af2bd3a0e1aU, 0xbe3869b0bd2462a2U, 0xbe829d653dcb838bU, 0xbd3b86923db05d17U,
  0xbd361cc3bdd57c17U, 0x3d7c9c713e0b4ee8U, 0x3dc681fabdab1e65U, 0xbdb5fd4c3dbf3654U,
  0xbc86a0583db3e7cdU, 0x3cb8af13bdd89c7eU, 0x3e0936d43d163f78U, 0x3caf2947bd86368aU,
  0xbdb54d4f3e217f1fU, 0xbc59f9e0bd71535eU, 0xbd2b8db7bd9191caU, 0x3d964d7a3cbea5f7U,
  0x3db7c0e3bdb9622fU, 0x3e0ad7d1bcf7443aU, 0x3d0b834e3e65a220U, 0x3c37e30fbd29875cU,
  0x3d8a4398bb899f14U, 0x3db7bb8a3dbf9101U, 0xbe1ca8843de84578U, 0xbca7db313e25746dU,
  0x3ade6038bb8cd9c9U, 0x3d03d31b3dff7e12U, 0xbcf5e9923da34ad0U, 0xbda067e3bd1b8777U,
  0xbdc54bc43cb2d29cU, 0xbd8a7574bdbc3371U, 0x3ddac4513dcb7b1cU, 0x3cd30bae3e2643cbU,
  0xbad160f2bdb49718U, 0x3d3b28f1bda71badU, 0xbca44084be0fd89eU, 0xbdbb34dd3c2dce7eU,
  0x3de1477dbdf7b0bfU, 0x3ca278abbd3d271fU, 0x3e601077bd9a32d7U, 0xbdf853a63ddfbff2U,
  0x3df76009bddbd00aU, 0x3e51de0e3da25446U, 0x3d4133b73d6bc78aU, 0x3e8ad0213d46fbdfU,
  0xbca4741d3daeec37U, 0x3cb9f5613e1afc6eU, 0xbe2faa053c3d49a5U, 0xbd28185cbd370b25U,
  0x3e589fc6bce6ca22U, 0x3bd0e9253cc416f5U, 0x3dcfb13e3d3e5a3fU, 0x3d9ab3203bed3fd5U,
  0xbdaed5b3bd26d235U, 0x3dcebe76bd8c3e29U, 0xbdfc0be0bdb09090U, 0x3bb9a7473c292fddU,
  0xbbfd36a8bd61eb30U, 0xbe1d47e5bddb4f07U, 0xbdf457afbda6fb91U, 0xbe3427213df368d6U,
  0x3d5add1fbdb3ad71U, 0xbd009329be8527e0U, 0x3dba8f5d3e366164U, 0xbe78f0ff3e1a4972U,
  0xbe498e983e2a3759U, 0x3d89f371bd500a97U, 0xba70e83d3cfe300fU, 0x3c91f3023e180e87U,
  0xbc2c1a47bd1d9a73U, 0xbdb8ed6cbd1b5ca6U, 0x3e2801ab3b9293dcU, 0xbd9a09d33d030158U,
  0x3d89c4833c5d5731U, 0xbcfd002f3c7cb768U, 0xbd9fab2a3d9eb6f6U, 0xbe3447ee3d77961dU,
  0x3d73cacc3c9d844eU, 0xbd27dcbabc607a59U, 0x3c0f7bc33dce0b77U, 0xbd4f8fb23d105822U,
  0x3de278bf3dcf3f9dU, 0xbe0941f5be1cacfcU, 0x3c526b0d3d08d5e6U, 0xbcf6a4393d3d47dcU,
  0xbce022833dcb6005U, 0x3e30d61e3e6143f3U, 0xbc235883be015b13U, 0x3da0db0a3bdd0cc0U,
  0x3d7688be3d2001d0U, 0xbd8d7eb93da2eae2U, 0x3d31c3863d0c8151U, 0x3d12db35bd9706c8U,
  0xbda89d9e3e070114U, 0x3d4104a43e035d71U, 0xbe55769a3de6c67aU, 0x3da8a85dbd0bd364U,
  0xbdc91b4f3da3d8dbU, 0xbcd81013bd0b98e3U, 0x3d41fd36bd971fbfU, 0x3dbb2accbe06a8bcU,
  0xbde6da803d749084U, 0x3d112114bdc48d68U, 0xbe2a9ea13e0524c5U, 0x3e43f32bbd511c53U,
  0xbca63fb1bd810345U, 0xbd24efbb3d26f680U, 0x3d2a4d41bde11c98U, 0xbd3fb5893ded0c59U,
  0x3db6fc57bd9e3575U, 0xbd52ce043e020a55U, 0xbd1be906bd8d47a9U, 0xbe00619e3d574600U,
  0xbdacb3ea3d1a86d8U, 0xbd4194b03c095f61U, 0x3d220a023d7d156dU, 0x3e31e72f3cf6c638U,
  0xbda319233b9e40deU, 0xbdd1c5b5be16e876U, 0xbc580f943d02ce11U, 0xbe0ba191bd9358fbU,
  0xbc04a8283d07aabeU, 0x3d9d993b3ca773ffU, 0x3dcf5fd73e21cbafU, 0x3da3b50abe222cc8U,
  0x3d2add6bbb44cdd7U, 0x3e5074943e39ef25U, 0xbdea24f7bd35e1acU, 0x3d9cbb9b3d7b608aU,
  0x3d9cfe61bd4580a1U, 0x3e00813dbe609d26U, 0x3dc5fcfb3c07e715U, 0x3d8ead0fbe523ee3U,
  0x3da606d33dc3d000U, 0x3d8786b63db70cd7U, 0x3dc85558be0090b2U, 0xbdc03a503e5a8c25U,
  0xbda721c4bcfb49a0U, 0x3e1758cf3e1ea3bdU, 0x3db8ec753d7b815dU, 0x3dad2fec3d28c2efU,
  0x3e23ce20bcde862dU, 0xbc5049983d3b3358U, 0xbe12a234bd4e29cbU, 0x3924926c3dbdaf28U,
  0x3df2e5d5be0b5944U, 0x3e0b4728bcc5870bU, 0xbd8088cc3e1f00d3U, 0xbde56ee23dd07f08U,
  0xbdb43056be092a2cU, 0xbe5b385e3d530a67U, 0x3ca2e0613e2c7959U, 0xbe4d8faf3c0bcdcaU,
  0x3affa2733d31af13U, 0x3d396f0939d9d59aU, 0xbda96677bdcdd794U, 0xbd769f4ebca5c01dU,
  0x3d01512dbdd5be00U, 0x3e00b4febc5b7578U, 0x3d1f5bfd3af563beU, 0xbcf203923d7f8f01U,
  0xbcc4ad47bdad141eU, 0x3c2acfbabd830986U, 0x3dc2d643bd5af4c7U, 0xbe0c85003d216a87U,
  0xbdc12781be598ac7U, 0xbd249ead3e53a723U, 0x3e5005c8ba7392f4U, 0xbc58cb1dbd59d4b1U,
  0xbe21625f3e039a55U, 0xbe0a249f3d995c21U, 0xbd38e31c3d4f0b45U, 0x3c722631bdf9fb80U,
  0xbe4414e33e312909U, 0x3dbef164bc94a507U, 0x3da918623dbe5b55U, 0xbdaf82733c6774c5U,
  0xbe61e487be052f4bU, 0x3d8954dfbce6048cU, 0x3dbf11c3bbaf6226U, 0x3d580ef03c992af3U,
  0x3d1d1b413d6b9b34U, 0x3dbd35a8bdeb139dU, 0xbe5104413d8d5e58U, 0xbc8f747dbd15839eU,
  0x3de43172bd4494a3U, 0x3db71986be10b7aeU, 0x3c1cf3d73e1e2cc8U, 0xbdea5f47bcc9142eU,
  0xbe0e29d03e30cc82U, 0x3d5a145abde3f41bU, 0xbe8ad4c83ceb4c3aU, 0xbd72b8d83dc16125U,
  0xbde95253be2be198U, 0x3dc270efbd72ef6aU, 0x3d5190163cecdd82U, 0xbe1522303d27567aU,
  0x3cbe5c5abe56578dU, 0xbd7d0f9e3d97a249U, 0xbc357b24bd7300ffU, 0x3e0db40c3d1b42d6U,
  0xbb14d67ebcfbea85U, 0xbd440ca7be0a4447U, 0x3b97fbf43a84b62cU, 0xbd8d5cab3db0ca0cU,
  0x3e5a79773c403717U, 0x3daf5293bd17358fU, 0xbe04c64bbe17067cU, 0xbdfd6ab1390d8ae0U,
  0xbe27c465bda31ef9U, 0x3d099666bdef5261U, 0x3c68247e3d1a89d6U, 0xbd907fcebaa098bfU,
  0x3bbddf513d09a637U, 0x3e45f2cc3e018a95U, 0x3c46d733bdb7e873U, 0xbd1b4ea03d0ecd64U,
  0xbe370e873db3e098U, 0xbde64f56bc0ec299U, 0x3d713a0cbe0d29c0U, 0x3cda761b3e06b6ccU,
  0xbdf1da47bd90d23bU, 0xbe1834183e20b4f4U, 0x3dc72cc9be70b1e7U, 0x3cbbee333d5e7529U,
  0xbce843dd3d786021U, 0xbe357c6abdc1fa40U, 0xbdbcfb9fbd8ecc0aU, 0x3d91fcebbcbd5463U,
  0x3d48b0ea3dcbe6d5U, 0x3d39a7cebcb9089bU, 0x3db97744bd1aa300U, 0x3e34c35c3d056200U,
  0xbe390046bd308d1aU, 0x3d9c762dbe89964dU, 0xbdd2d67c3e16b9feU, 0xbd116f1f3dffdfa8U,
  0x3e2ea6e13e147c73U, 0xbc008f8bbd96acaaU, 0x3d12120a398d1a25U, 0xbd2535ca3d9407dbU,
  0xbe04d637bdf6a604U, 0x3d2aae813bcf2654U, 0xbc8f4f7a3d375fadU, 0xbd86b4ccbd06bf3bU,
  0xbc0c48d5bd60f865U, 0xbe031f36bd4fcc57U, 0x3e10069ebdf544c3U, 0x3d3f2b59bc9c04a0U,
  0x3d6a606f3e6f9dadU, 0xbd4e41583df98e5bU, 0xbd1ba2b33c2c242fU, 0xbd1a50b1bdd31bf7U,
  0xbd94d20e3e72fbf1U, 0xbe97055a3d909dedU, 0xbe4a25f3bdf35fe6U, 0x3de5e3df3cb7de35U,
  0x3a72f96b3c7c3154U, 0x3d2a9d1e3cd6d610U, 0xbdaae0c6bd4af75aU, 0x3d9beddcbc43152cU,
  0xbd50ee383d02928cU, 0xbcc35031be61666cU, 0xbd1b14673e64a72bU, 0x3d8fa8fe3d2dfa91U,
  0xbda16c9c3c4bcd73U, 0xbc8038fb3de0a170U, 0x3d6adcacbace9b56U, 0x3c8f273abd582168U,
  0x3d77fdf4be37a449U, 0xbdc701ba3d0ce8f0U, 0x3e5b32fe3d5b3916U, 0x3d959650be82afb4U,
  0x3d398dbc3d44b055U, 0xbc9037e23b6fdf57U, 0xbde40ad93d56f5c2U, 0xbd0142c53d1bb87eU,
  0xbcb733133c9b8ae2U, 0xbe04c29dbdc8fe12U, 0xbd8cd7673dad7c3eU, 0x3e49f258bd2092a2U,
  0xbcaa9f323d2d8882U, 0x3d812b1ebc66f073U, 0x3ba7bd433cd72671U, 0xbe4b730dbd645726U,
  0x3c9a851abde845bfU, 0x3ca4c16abd673113U, 0x3da1fb123cd213d4U, 0x3de3444ebd97d5afU,
  0x3d727dc13dbced59U, 0xbd8fd2e2bb68623dU, 0xbd94a9b53dae60d4U, 0x3e55c4f73d55427aU,
  0x3dab175dbacc09fdU, 0xbd2f4861bdcebac7U, 0x3cc8f590bdcefd4dU, 0x3d821c7dbca1647aU,
  0xbe08bd983c88fb6fU, 0xbccca624bd2a54dbU, 0x3d20f898bd944a44U, 0xbc3035ca3cc002f1U,
  0x3dfc958d3e6610ffU, 0x3d3025123d7dd15bU, 0x3c19bdeb3d8cae6bU, 0x3dfdd5bcbd814010U,
  0x3c41b3b53e0f56ecU, 0xbe2f4492bdf134c8U, 0x3e3204c0be1ae883U, 0xbc2d9cec3d4d90c6U,
  0x3e7784363e4b9a59U, 0xbdbf2189bd33c8ceU, 0xbd87fd4b3e3c917eU, 0xbe1484bfbe353304U,
  0x3de077b33dc059c2U, 0xbc621f1e3d2bd1c1U, 0xbd3b037d3e019dd6U, 0xbbfb4efe3e1c9402U,
  0x3d978b8ebca134dfU, 0x3d132dd4bd6d2aa7U, 0xbe6f49243e55fafaU, 0xbd8653073c8c615eU,
  0xbc4dbdc1be35f831U, 0xbdd5fde8bcfd1ad6U, 0x3d768057bcd1a720U, 0xbd8f9d8b3e64aab4U,
  0x3d564ed4be14aebbU, 0x3c7540d63e048fe7U, 0x3d8db583bd549a81U, 0xbd8c96e33e91bad9U,
  0xbdad5788b99c2c51U, 0x3ddb4fe9be27d16cU, 0xbc7cf14f3d76dc76U, 0xbe1fd32bbdf98c51U,
  0x3dc5fc39bc1c35acU, 0x3b9532aebaaa0a68U, 0x3dd142023dec6bdfU, 0x3c88c97d3e884565U,
  0x3ddbcafd3dbdd0ebU, 0x3d43062bbd02628bU, 0x3cd75e463e534092U, 0x3c9110843d374853U,
  0xbdbe342cbe61c2b9U, 0xbd59605a3e0603f1U, 0xbe496faa3cb1f116U, 0xbda9cbb4bdf65a3aU,
  0xbcd5dce3bdc971f1U, 0x3d9fc3a3bc8c387cU, 0x3c0405d4bd50275fU, 0x3c59caa5bd82d023U,
  0x3cfe66363df3703aU, 0x3df90657bdc7c4baU, 0xbe1880af3e73979eU, 0xbda5b4493d71ea96U,
  0xbd4f7457bd2aec49U, 0xbd4453d6bd8ec575U, 0xbd10f5f63d87f419U, 0xbe225f353db0a343U,
  0x3e28c642bdc73e3aU, 0xbe046913bdf1a7beU, 0xbd5186c7be8481caU, 0x3ce72e0c3d172e7aU,
  0xbd7e0682bce905feU, 0x3dfe2ac6bdbe00aaU, 0x3bcbc5473d291e64U, 0xbd113d5a3cc945ceU,
  0xbd147d97bd7bfd72U, 0xbd8ac2623d70fc31U, 0xbcde4b2e3e3da606U, 0xbe34007c3e15c8e5U,
  0x3c9858debd9fe4ccU, 0x3d37803dbce8824bU, 0x3d870f81bd144c34U, 0xbd4dbbe6bbd5b90aU,
  0xbda69cc1bdb67709U, 0x3d175590bd8c9bd2U, 0xbced9b63bb688457U, 0xbe1b75eabdf6901cU,
  0xbd8693003e1f02d2U, 0x3d0cbfcebd1883beU, 0x3e39ee74bd643794U, 0x3d48126d3e19aee5U,
  0xbdad6670bca8cb6fU, 0xbd97723d3dea3e7eU, 0x3d3798653da57bbfU, 0x3dfac43ebb120d09U,
  0xbd9e071d3badd88eU, 0x3b80ec273db98999U, 0xbddae0403b349ceaU, 0x3d844abdbcfb2a0eU,
  0x3ced15263df08ec6U, 0xbdf804d6bda514b3U, 0xbc8c8a083e95f8faU, 0xbd83f909bb864782U,
  0xbcc340333ddc0dffU, 0x3d8352903c3c2e2bU, 0xbdd0ab62bd6e0127U, 0x3e0e1b493e05ecf2U,
  0xbdf940bf3da212c7U, 0x3d46d5a03d90c766U, 0x3dadb8d1bd92d6b7U, 0x3d8c83fcbd170229U,
  0x3bedb392bde30100U, 0xbc0189e2bd0024b9U, 0xbdbbbac3bd3af931U, 0x3e85a2483d064e47U,
  0x3d429bb63c7c3bc0U, 0xbd8f5255bdd9438cU, 0xbe1401dc3e5968bcU, 0x3d9d8363be29032eU,
  0xbc91684b3e32c0e1U, 0x3d9e36a13e248915U, 0x3b3b96463ca2239bU, 0x3e0d97a2bcb043b8U,
  0x3df6a68d3e3fa5b7U, 0xbd27bd9ebe1a087eU, 0xbdec64ba3d95b714U, 0xbd1975183db6198aU,
  0xbdc164adbdedd6a0U, 0x3d4e1d0cbd9a1edfU, 0xbd177acd3ab7ef1fU, 0x3d4f7b5cbd8a5fe8U,
  0xbe2287d8bd09a234U, 0x3d185e94be4dec71U, 0xbdadbfadbdf0785bU, 0x3c270e2f3cbc28ddU,
  0xbba3a14e3cd4f063U, 0x3b794879bd554d9cU, 0x3c0119263e17b7a5U, 0xbc5dd2dc3bed90ddU,
  0xbdcd7854bce06f87U, 0xbcfe00efbdbe4da0U, 0xbdd19c1d3d9ecf6eU, 0x3d931f373c81c03bU,
  0xbcfa818c3d4cdda3U, 0x3d43ff23be2b435eU, 0xbd6cf7943c449e8aU, 0xbd9899813d222bf9U,
  0xbd0250a0be0015b7U, 0x3aae80b5bb1f3b21U, 0x3d5c53833d03e41aU, 0x3e07a6ec3c888d3fU,
  0x39274a26bd9d0a74U, 0xbdd79f90be2f648fU, 0xbd9576723d9382ffU, 0xbdceed49bdec8208U,
  0xbd43f1bfbd9c8c52U, 0xbe0f9866bdaed916U, 0x3d42a0a03c5d68d2U, 0xbc205fb0bdc5f261U,
  0x3da8e06dbe5bb876U, 0xbdaee3c3bdc9bcd3U, 0x3e5d7b353da89713U, 0xbb4d5eaeb9cb4ae6U,
  0xbe071f65bdb389b6U, 0xbd2faf963d1587feU, 0x3de2dc25bca91248U, 0xbcfff3673d2ab294U,
  0x3e16f62f3e172584U, 0x3da5674a3dc91292U, 0xbd289e0b3dedd43eU, 0x3e175e62bc1df573U,
  0x3c6dc9473e0d4f2cU, 0x3dfc14ebbd99e582U, 0x3d0615cdbd20d0f5U, 0x3e0ec8ad3d6ebc1dU,
  0xbe17818c3d8ea536U, 0x3bce25f83e823645U, 0x3e6c18673d283e88U, 0x3d032ff8be2944e7U,
  0x3d63cfe7bdb86858U, 0xbdcd8f283ca9ba00U, 0xbd3334863d229781U, 0x3cf8bc423cc29613U,
  0xbc81ceddbdda60b5U, 0x3d19d239bc626b79U, 0xbd95f2123ccf383cU, 0xbe4c0aea3ddfeba9U,
  0x3d4ed6d4bb76a135U, 0x3c7a0c21bd4ff251U, 0x3e4933e8bbea6cd9U, 0x3cca8e0a3d30a83fU,
  0x3e1766ff3dca75a2U, 0xbe23b0e0bd26ffc9U, 0x3c0c59313d243850U, 0xbd980bd7bde77580U,
  0xbe3a88163cc78d3bU, 0x3dacf06f3b78caf3U, 0x3deca9be3d3e65bbU, 0x3c43f59cbe4aa87aU,
  0x3c90d6c6bd95f6dfU, 0x3e017404be162f0bU, 0xbdad39bb3a99fad0U, 0x3ca7c51fbd188a12U,
  0x3bca8f833e495f89U, 0x3e4150a33dccbfc9U, 0xbcf33a933d73d4b6U, 0x3c5d14b73d4726c7U,
  0x3bb1b5bfbc5c40bfU, 0x3d6eb4dcbd06abf5U, 0xbe9f6d733e0c8c35U, 0xbd6c59883e0db4f5U,
  0x3d598634bdac002dU, 0xbd46d35a3da97015U, 0x3cb4aa253cc378faU, 0xbda621733d0d95fcU,
  0xbdd45d21bd0161d3U, 0x3cbafbd8be37953cU, 0x3db8d9203e144e9fU, 0x3d03dd673c1cb9cbU,
  0x3cbb05343d05f83fU, 0xbe6b74d63d9e396eU, 0x3e033297bdec9eaeU, 0x3d4dff64be08576bU,
  0x3b4aa98b3ded6ddcU, 0xbdd205bf3e4e113cU, 0x3cba4a26bd4e0bd6U, 0x3d5fe70ebca4d44bU,
  0x3c5329113ddbb086U, 0xbd79336bbcdfd947U, 0x3d20b726be2d8de5U, 0x3dc16247bdd339f8U,
  0xbdd0de8b3d88707fU, 0xbc4cc80abce2c8b8U, 0x3bb617bc3db0a201U, 0x3d8adc7e3e3fa9e2U,
  0x3a15a422bdf5674cU, 0x3d8902453da2c4f6U, 0x3b7162c23e426392U, 0x3e2d05eb3d47c285U,
  0xbca43d063e804169U, 0xbdc05b003ccd9240U, 0x3c9b0d4abcc0c1e8U, 0x3d508cb23e317d6aU,
  0xbe31c6ae3e71c87dU, 0xbd1957533e478251U, 0x3c2bb8afbdd0e3f9U, 0x3c50823c3b93cb5eU,
  0xbd0fd310be579f98U, 0xbdba92edbddd0f19U, 0xbe179f003dd00535U, 0xbdb3000a3dc832e3U,
  0x3d101467bd987eceU, 0xbe6e5f2e3c25f074U, 0x3e3589dd3c8f2b3aU, 0xbdcf24083dd39920U,
  0x3dc019cd3d258d76U, 0xbe03435d3e4d488aU, 0xbe09a0433e16e258U, 0x3e66e54abd0d689fU,
  0xbdf506a33e7abfecU, 0xbe1e5c1bbe02420fU, 0x3da38f1f3dc26cfeU, 0x3dc51f033cccb75eU,
  0xbcc3309bbd5ee5a0U, 0x3c6368fd3dc0170eU, 0xbd932ecd3e3389bcU, 0xbd0608ca3d414ad0U,
  0xbb418321be1f4301U, 0xbe0ce46fbdb5bfd5U, 0x3e4fab0d3d020915U, 0xbde351c43dd9b590U,
  0x3dcd84733e51e633U, 0x3d02f0063d4ba0adU, 0xbd65ce3a3de0892eU, 0x3d18f0393e04a899U,
  0xbdb874473db38293U, 0xbc8423c3bdb1f7d0U, 0x3d937dc4be030776U, 0x3dbcb9873dcab761U,
  0x3e494e4e3e5cc2eeU, 0xbda75dbe3d906f96U, 0xbbc2009abe6b86ecU, 0x3c239664bd18bf74U,
  0x3c1a63d63d331e84U, 0x3e182dd03d69ecadU, 0xbea777fd3d45c992U, 0x3c8e43623d87bc10U,
  0xbd85b2f0bda350aaU, 0xbd84b8bc3da19cf1U, 0x3da7fb70bd0d57e6U, 0xbdc3c8b23d834ca2U,
  0xbdc2b097bce78b97U, 0x3d7e9d723e0bde47U, 0xbda4833c3c9c89beU, 0xbe37ec1a3da963c9U,
  0x3d720aaf3ab90bd7U, 0x3d827ef23e0ad0d8U, 0xbe3e43d53c2f1cfeU, 0xbd97a9b0bd011724U,
  0x3e09a8633d360d20U, 0x3a9013333db98c82U, 0x3d9fbccb3d473826U, 0x3c27c48dbc91cc15U,
  0x3d136966bcd535faU, 0xbc3b96a13d0e482dU, 0x3dd9ea34bd99378cU, 0xba5b2d103df38349U,
  0x3d90e48ebe0c1cceU, 0xbe0754a53c14139cU, 0xbae9304abd318ad3U, 0x3e44811a3d604270U,
  0x3d3652d9bd2890eaU, 0xbdcda9d2bd0207d9U, 0xbca836463da6e7b5U, 0x3d845604bdb9a533U,
  0xbd97b458bbebbd11U, 0x3e2dd9e5bdea1784U, 0xbd9b1f25bcdbf1b0U, 0x3d93b6cdbe0f7b36U,
  0xbcfe481fbd3fbd41U, 0xbde0cddbbe912fa1U, 0x3d77cde0bd892e17U, 0xbc9aa5d4be240524U,
  0xbca00b0ebd3fee27U, 0xbe3fab743d952416U, 0x3d8cb7333c889ad9U, 0x3db92e303da59778U,
  0xbca76a13bdc7c095U, 0xbc8eb57abe252deaU, 0x3d0e6a57bdbfe72fU, 0x3da441553e0983a8U,
  0x3dce483cbda16480U, 0xbe1d2f28be230be4U, 0x3e7270e63df1ef3eU, 0xbd0a4b813d59de0bU,
  0x3cc44789bc890618U, 0xbe415a5ebc4befabU, 0xbbdb8a683e1bdcd1U, 0x3de2ea633dbf19f6U,
  0x3d299def3e14fdfbU, 0xbe1ab204bd97c3a1U, 0xbe39bdf4bd981c59U, 0xbe148c953dc4cbeeU,
  0x3dd0f06fbd29236eU, 0x3dbe2e5c3ba57ce1U, 0xbd3900ce3e33928bU, 0xbd75c1083d9bc3d0U,
  0xbdcaf34ebe206a3dU, 0x3ca9636bbd2d3531U, 0xbb50bd473e28fc4bU, 0xbdc37ae23cc1da20U,
  0x3d03f9613d183e9bU, 0xbcfaa7ae3d4a6d24U, 0xbe671b963d90a72dU, 0xbdbbc153be04d377U,
  0x3dedd704bcec9d36U, 0x3dd567b73ccb2fbbU, 0x3e2578623d87209bU, 0xbd629071bcf5fc71U,
  0xbcb9fd7cbe279257U, 0x3c0c6fafbe5cc7b3U, 0xbda46aae3d95cb9bU, 0xbd900896bd2f8a48U,
  0x3e56ad45bd8d5a11U, 0xbd0b355abe48e75cU, 0x3db78db83e2eb754U, 0xbce871523ddb7d74U,
  0x3e1d3f8c3dd81424U, 0xbda434c6bc2b6776U, 0xbd01a4a83dcdb8b2U, 0x3e3f23563be7affcU,
  0xbda67f413d9d09a4U, 0xbdee50a93dd30785U, 0x3e9bc952bdaf8468U, 0x3d90136ebd313d48U,
  0xbc7d4deabced94deU, 0xbcfad5edbdd1fcd4U, 0xbde587d4bd9a7a3cU, 0xbdc1daf23df41048U,
  0x3d1ecdc2bd03ebc4U, 0xbdd4d78fbd3e2a3bU, 0xbce3a0c7bd5311c4U, 0x3d2e6e30bc7b7dceU,
  0xbd199f683d8c39bdU, 0xbc7319423d2f92deU, 0x3da42af63cc63f61U, 0x3dc0b1dabd8dcb7dU,
  0x3e2b9c823d373f18U, 0x3c95713cbd9bbfe0U, 0xbccc3f713dfdc42aU, 0xbe5200f4bdaf33c5U,
  0xbc0f639fbe25036aU, 0x3d97b0c8be0a0af7U, 0xbdd93cdb3e944bcdU, 0xbdb0ebb33de95993U,
  0x3e0519063cb07e6fU, 0x3d8e4c97bd8b4cfaU, 0x3db7d0503dce4aeeU, 0xbe5beb983c6b00e8U,
  0xbd87b5d93da57f2dU, 0x3d1e8073be34ba88U, 0xbdd9eb723dfe1489U, 0xbdcf42cfbce38dedU,
  0xbde6f478be229314U, 0x3e0dd1df3ced3adeU, 0x3dfa3f69bd6b9fa1U, 0x3d1da4e83d304046U,
  0xbe7a31febe142c69U, 0x3de4a341bd9267f5U, 0x3ddb611d3c0c3f0dU, 0xbe3807413e179d97U,
  0x3d711ae7bd9fcaacU, 0xbe6cd494bdb7c8a1U, 0x3db596623e140c6aU, 0xbda3c9f43da672aeU,
  0xbc0bea553e150278U, 0x3d8e34bb3d2552b9U, 0xbc9178e53d8be5a1U, 0x3df40101bca82d4dU,
  0xbdddfacb3e636501U, 0xbe196a4c3d84c6a0U, 0x3cb9d0b4be12aceaU, 0xbdc643fbbe354c47U,
  0xbd832799bce09d8eU, 0x3e3b458bbdfac25fU, 0x3d14ab54bc4ff6f2U, 0xbb331627be15d1a6U,
  0x3d9aa0633da7cf63U, 0x3dbb44883dac0798U, 0xbd185768bd92e668U, 0x3cdb3368bcbc8d3aU,
  0xbe788dfbbd810531U, 0x3e071b83bda5dc65U, 0x3e1cc7763c77bc13U, 0xbe32545c3d271f1cU,
  0x3cf83b7fbe21dc07U, 0x3d9e6afc3d6a768aU, 0xbc7e019e3c298a36U, 0xbe7188ef3d342f1fU,
  0xbe8eb446bddc3fe6U, 0x3de16d74bdc48eddU, 0xbe4f8d44bd10ba84U, 0xbdd487733e1770b9U,
  0x3beb6efb3d42b47dU, 0xbdfb69a3bd5a1ca5U, 0x3e27a1383df7e6c6U, 0xbdbd2dc83d20b7b6U,
  0x3da888b63db431eeU, 0xbe0e46b13d991a66U, 0xbe95e11abcd80814U, 0x3e4bb5b03d3cc181U,
  0xbe58d57f3e61a267U, 0xbbb0eb58bd839bd7U, 0x3c83548b3d36a08bU, 0xbd263943bdf0166cU,
  0xbd844f853e830896U, 0xbd0744ba3b1042f3U, 0x3de1dcdbbc72df21U, 0xbdfa3b403d66923eU,
  0x3d93ee313dd12ce9U, 0x3ed078463d709aecU, 0xbe33194b3d0f65a8U, 0xbb6e9954bd2bb8b3U,
  0x3caecfc0be223c70U, 0xbd9a03053d530785U, 0x3d89b696bcdd0ad8U, 0xbe0adb45bcdc4e6fU,
  0x3c720445be3e67c9U, 0x3d858559bc809a54U, 0xbd9d5e353dda69b5U, 0xbdeac3e33df7681dU,
  0xbc2a95a13bf532efU, 0x3cd9475fbe16a2c5U, 0x3e3242863cb4f34fU, 0xbdea4492bb90d30eU,
  0xbcb2085abdc77ab9U, 0x3e09c977bd09db50U, 0xbd502b4a3e2b9c5aU, 0xbe4f059abdb558caU,
  0x3d4d1f673a1c5ea0U, 0x3d182ccfbd56759cU, 0xbbc89e59bcaf95cbU, 0xbd83caadbba2c839U,
  0x3d9edbb9be5b6587U, 0x3e47ba3bbd846517U, 0x3d86788fbc54cff1U, 0x3df77454bd62e97eU,
  0x3d4ae1eebcc5a381U, 0xbad5c76bbc55cf72U, 0xbdc569023d9886baU, 0xbe5a5edd3e270d32U,
  0xbd187fa4bdce5242U, 0x3d20baee3d3e353bU, 0x3d5216c33def7ba0U, 0xbd5cd8123b777f8dU,
  0xbe07b28e3c5f7e9cU, 0xbdebcf203dbaaa53U, 0xbd9121f23e8d5f52U, 0x3e11ff773cdfb22fU,
  0xbe1034cc3ea1c4dfU, 0xbc9f98f93d02a185U, 0xbc31c9803e1059d6U, 0x3cfd0129bcdebabbU,
  0x3d031beebd88eb84U, 0x3d68c8bdbdb4ac3aU, 0x3dacf6d4be12bd03U, 0xbe8fdca8bd3c9371U,
  0x3d7f4e1a3cdc58d9U, 0xbd60c712bd882ee0U, 0xbde15be03e1b2306U, 0x3d8041fd3b9d5686U,
  0xbdc80cea3d85be10U, 0x3d1d58d8bd380fd6U, 0xba905248bd495ccbU, 0xbc606cbc3d939a4bU,
  0x3d45e37fbc767049U, 0xbd6206dc3d8c647cU, 0x3c6a6969bd24ea24U, 0x3d83456c3de4074fU,
  0xbdebb4803db74288U, 0x3ce4d514bdbff6a1U, 0xbe7ca1a53c0d3f14U, 0xbcac6de83d9bfc70U,
  0xbd233852be3c9934U, 0xbe01171cbd3db61fU, 0x3de2b073be022b52U, 0xbe43ce023d1a38c9U,
  0x3cf007583d9bbc33U, 0xbcf2fb9ebccd8312U, 0xbe342af23e09444bU, 0xbd1cdbe93e0d2316U,
  0x3cc8fc7c3d3df713U, 0xbd749eefbc0eefc5U, 0x3d12265ebd6edb8aU, 0xbe0513cd3d7bc279U,
  0xbd27e772bd431ca4U, 0x3e2a34aebe6a272dU, 0xbe1b9b573dd93e98U, 0xbd330f123e002ff7U,
  0xbcab1909be614631U, 0xbdc7196cbe5b813cU, 0x3dfb234f3e4a875fU, 0xbdd8c0033d904100U,
  0xbd86a8af3e06ee33U, 0xbd91cc6e3bb3037dU, 0xbd5ec5333defaf94U, 0x3dfed5483db7f768U,
  0x3df89e2f3de5a85eU, 0xbd680ce03dcbaad6U, 0x3e0807953d3db17eU, 0x3ac1aec2bd9f8e5bU,
  0xbdd6a5383e324e09U, 0x3e07e8793b83f979U, 0xbdc5fba53d123d96U, 0x3d1504d7bdb0d431U,
  0x3c3d12353cec4504U, 0x3ddf18653e03dc03U, 0xbd924db83d31fa5bU, 0xbde9bdc3be3c51c0U,
  0xbda4ca23bd147cbfU, 0x3e862e093d8ff8bdU, 0x3d8d4a60bd0c0d00U, 0xbd6650603c6da86aU,
  0xbd11ae69bbc0f6d4U, 0xbddfbb8c3e41b622U, 0xbde683173e15c80dU, 0xbcae1d693e85a056U,
  0xbdb77bbb3aa5dd96U, 0xbd355e3bbe16d4e2U, 0xbd35407abd03c8e4U, 0xbe31d9e53d499c81U,
  0x3b551e8abd8f7147U, 0x3cdb66f43d924ba9U, 0x3e87a8ddbdee3d5dU, 0x3c01c3bb3c8af33aU,
  0x3db7e5e23d03bb60U, 0xbdda382d3e0cf93fU, 0xbe440811bd885115U, 0xbd52243a3ce357a2U,
  0x3c825aa4bd5bc367U, 0xbc985c8b3c79bd3bU, 0xbd4c91833b9ec0d4U, 0x3e2429b4be2cde9aU,
  0xbd14e6273ddad713U, 0x3bc0ce7dbe2c339eU, 0xbdc254cdbd4e556aU, 0x3e1876303cab4ec2U,
  0x3d7ecb6bbd524ee2U, 0xbcfb6a2fbd3b7d83U, 0xbdb11915bd46af9dU, 0xbd95dc88bcc76f8cU,
  0xbcc927ff3da52a65U, 0x3d0d5779bdaa38c1U, 0x3c08d47cbd37c533U, 0xbe6a3d1d3e0911acU,
  0xbd2fee97bdaaf187U, 0x3d733016bcf93d35U, 0xbd45f9fa3dc02b9aU, 0xbd8e394fbc88a030U,
  0xbd2c11513c0ec0caU, 0x3e6315dfbd60ad27U, 0x3d0f71f1bbf3a275U, 0xbdb63a1a3e0c2232U,
  0x3dfaed9bbe31997fU, 0xbe987fa2be0fbe33U, 0x3e56e9fd3e29794dU, 0xbd2c3555bd38994bU,
  0xbdc494f83e2afe0bU, 0xbdb958713e29be00U, 0xbe432295bbcf5585U, 0x3e32e21d3ddcece3U,
  0xbe131e4f3e1aa2e6U, 0xbcb35d133dad77d5U, 0x3e3360c8be5b445cU, 0xbe109b83be878fceU,
  0x3dd0fb6ebe2523b9U, 0x3e37d2f1be5b3e0dU, 0xbe3a9b7abe09a813U, 0xbe8ff84f3d1cc80eU,
  0x3e8a57c63bf5bf24U, 0xbe768b9c3daace03U, 0x3e9556be3e418599U, 0xbe9139723e2816ceU,
  0x3e16fcaf3daedc0fU, 0xbd7eaf72bc00a8a2U, 0xbe5ddfb93d88abdfU, 0x3e1054f43e1100faU,
  0xbe47decd3df2c641U, 0xbe15ecbc3d956febU, 0x3c6e78a2bc7f1c82U, 0x3cebddcdbde0240eU,
  0x3e9673adbd8b4e81U, 0x3bebccdf3dc98ecdU, 0x3d91196d3d37045aU, 0xbd0928be3cb84913U,
  0x3c41b4473da98f22U, 0x3e070256bc598ac9U, 0xbdc403cbbcb3cdcaU, 0x3d590fc1bc88a843U,
  0xbd4ae590bd5639daU, 0xbd904804bdb49209U, 0x3db80021bd071db4U, 0xbdeb261a3ce86162U,
  0x3e7f650bbd4dbfc0U, 0x3df5b3263c92da55U, 0xbdaaa8f33e31f829U, 0x3d51b854bde2d713U,
  0x3da3b863bc34147fU, 0xbc84267dbcbb2608U, 0xbd8ec9fb3e1995dbU, 0x3bf68bc23d99a941U,
  0x3de6f1dcbd0904ffU, 0x3c77c0873dc19556U, 0x3d0e2ec63e0242a3U, 0xbe0537813d9acfaaU,
  0x3d337696bcff30f8U, 0x3bb245fbbdf57b12U, 0x3d08edcabb6c861dU, 0x3d870cef3da842a6U,
  0xbd2d98a1be6f09cbU, 0x3c87608d3de939e5U, 0x3d50986d3ca7cf32U, 0xbe518666be07af44U,
  0xbccafeaa3d0e9a73U, 0x3d2b3a79bc1257b2U, 0x3c9628ae3d322c85U, 0xbe4140723d48db75U,
  0x3e3d2082bd5dfe23U, 0xbd0c62acbde6e3e2U, 0x3d01a6cf3da8de2fU, 0xbd9ea23abd12afabU,
  0xbd8da54b3e2c8990U, 0x3bd3442f3e347f4eU, 0xbe05efcdbd6dec59U, 0x3e367170bd30c33bU,
  0xbd1e2241bdba03a1U, 0xbdbae56d3dae3cf8U, 0xbe2a5088bd3100d4U, 0xbd9d49eb3df9e55fU,
  0xbd537abdbde078b0U, 0x3c962742bc58ef07U, 0x3cc3e364bd8ff1aaU, 0x3d0aae933e18d64dU,
  0x3dc662fcbe31e1afU, 0xbe21242bba63d872U, 0x3d93c39c3d98a7d0U, 0xbdb50214be86e068U,
  0xbdd28cd3bdb857a9U, 0xbcaa11c6bddcefaeU, 0xbda0ac4ebcbbc95cU, 0x3d226293bda0863bU,
  0xbd1a3250bd916f2bU, 0xbcf67949bc9a4077U, 0xbdd1b0c83d0d1081U, 0xbdc9a1ee3c9d0776U,
  0xbd88f87c3d07b4afU, 0x3dcc00fabbc36379U, 0xbde4f36e3da47997U, 0xbdbcac77bd2a50a3U,
  0x3d59dccdbe6bf3a8U, 0xbdce958dbe4922d5U, 0x3c311f24bd050670U, 0xbddcc9ecbdee1ba1U,
  0xbd7e482d3db16296U, 0xbcbb24d7bcdb66eeU, 0x3de6a0553bbd03c4U, 0xbd81e92b3df8f302U,
  0x3c2f7205bc973cc8U, 0xbcbb32fd3e102d6cU, 0x3e41ca4a3d1a03caU, 0x3e3c5008be1ea5d1U,
  0x3e15e0a2bcae8af0U, 0xbc018ea9bd40cbb5U, 0x3dadef143d6b01e2U, 0x3c9c166cbd603d65U,
  0xbd787a9f3c94d645U, 0xbe1cff8ebcc7912fU, 0x3e2d9e4b3d58ee34U, 0x3b8376d5bdbb392dU,
  0xbd3e9f9ebb9f139fU, 0xbcb456ad3dce5aabU, 0x3c785884be8e6e69U, 0xbd8acc3cbdf019fdU,
  0x3ce5d0d83dbd7f2cU, 0xbd89b94b3d701363U, 0xbd0f8510bda8c871U, 0xbe00b7c0be262823U,
  0xbd56100d3e32d606U, 0x3e0722e4be67277fU, 0xbe10f6d83d1228e9U, 0xbd6f53debdda8aa1U,
  0x3e01c6bc3b061d3eU, 0x3d4988c5bdf7ed49U, 0xbd67f5e83cc1c6d9U, 0xbdcf46633d6f8b35U,
  0x3dc7c5f6be3807bdU, 0xbd8168ecbd4ba404U, 0x3d2904a2b980432eU, 0x3e5390883d8f4901U,
  0xbd326b423cd0b34cU, 0xbd3032fc3d40e384U, 0xbd33bf883c71c4dcU, 0xbdaf28e43c96f601U,
  0x0U, 0x0U, 0x0U, 0x0U,
  0x0U, 0x0U, 0x0U, 0x0U,
  0x0U, 0x0U, 0x0U, 0x0U,
  0x0U, 0x0U, 0x0U, 0x0U,
  0x0U, 0x0U, 0x0U, 0x0U,
  0x0U, 0x0U, 0x0U, 0x0U,
  0x0U, 0x0U, 0x0U, 0x0U,
  0x0U, 0x0U, 0x0U, 0x0U,
  0x0U, 0x0U, 0x0U, 0x0U,
  0x0U, 0x0U, 0x0U, 0x0U,
  0x0U, 0x0U, 0x0U, 0x0U,
  0x0U, 0x0U, 0x0U, 0x0U,
  0x3c93a2cc3c779e5eU, 0x3cef45753d2e411aU, 0x3b31c967bb37d9e6U, 0x3ce8e8ed3d03640aU,
  0x3d1638133d63f43eU, 0x3d8cdb013d83b006U, 0x3d9cc7503cb9aca1U, 0x3c7a8da73d0786dfU,
  0x3a0d9c383c73002bU, 0x3ceb43fc3d237395U, 0x3c1e94e33d0e8e91U, 0x3dcf49a33ceb900bU,
  0xbc9154b63dd02d6fU, 0x3cb379453d57a9a2U, 0xbb8cc6a9bc31a3b9U, 0x3d7382373c4eabb9U,
  0x3f82e3893f82ac64U, 0x3f8622443f86b2dcU, 0x3f80ccd53f810595U, 0x3f856c7d3f820ddbU,
  0x3f806c8f3f88aaa6U, 0x3f8885d73f8b954dU, 0x3f87d63a3f84489fU, 0x3f81fdde3f869babU,
  0x3f814f663f81233bU, 0x3f8541e53f84efd7U, 0x3f82c3733f83c1b4U, 0x3f8816ca3f8274c0U,
  0x3f8110483f8ac929U, 0x3f820d6b3f883e88U, 0x3f8277363f808851U, 0x3f86c70d3f82c026U,
  0x3cabb1c3ba89a59bU, 0x3d0988edbd1f075cU, 0xbd55bbf7bc8e6d0dU, 0xbdb2fba63cd23dbbU,
  0x3c8211dd3c775b01U, 0x3c191542bda3c5efU, 0xbc9643f33ccd4447U, 0xbd3a24573d09b5e7U,
  0xbc123b3bbcb52465U, 0x3d02ed69bd0e8682U, 0x3d5e85be3c99e3a1U, 0xbd223f093cb9c366U,
  0xbd372ee5bcc2c104U, 0x3cf203803cf9c2d8U, 0x3c245cfd3ba0ce27U, 0xbc929920bcfce4fcU,
  0x3cd3459f3c855261U, 0x3c1496833d95a88eU, 0x3bea17383a9c14a1U, 0x3d8627693d7e60efU,
  0x3d1b413a3d903c5dU, 0x3dac17ff3d9cbcc1U, 0x3df36cac3d15ada1U, 0x3c2b148b3cf2b35cU,
  0x3b85fffe3cf25020U, 0x3d36c2823d3ae946U, 0x3d21e4163d102cfcU, 0x3df1bb493d11b7e1U,
  0xbd130b033e06d540U, 0x3d148a153d8aa529U, 0xba9655afbb393a9cU, 0x3d8af6f33c97b89aU,
  0xbe82fc71be50eeaeU, 0xbed41a76be0707f3U, 0x3e1e64633ed3bbceU, 0xbe3c918a3e5499f8U,
  0xbeb43d7dbcb3d828U, 0xbed9024fbe32c999U, 0x3e822a22be930f12U, 0x3e7d964ebc88a072U,
  0xbcde29483e78472eU, 0xbf0cfa993e20c006U, 0xbddb03e0be91f4b0U, 0x3eba3d5e3e8e89b7U,
  0x3d0a763d3da6778bU, 0xbdf55d103e3f1d6bU, 0x3b919830bea45340U, 0x3e3ad013be11b556U,
  0x3eec5ff93ee90c0bU, 0x3ecdd03bbd84f915U, 0xbea98e25be53d452U, 0xbe82cc283e803c04U,
  0xbeb0a1c53ef12abdU, 0x3d928e1c3d5ba372U, 0xbf18d8083ed14184U, 0xbe22f4a63e93d60dU,
  0xbe3d7c613dc9861bU, 0x3e6ef0ddbe2e27e4U, 0x3dec8ae43ee99535U, 0xbcd679993e8a3801U,
  0xbe1c020bbedc782bU, 0x3edc69b83ec1abeeU, 0xbee242503e6acd48U, 0xbeba592fbe33a257U,
  0x3d0f1970bd0f196eU, 0x3f576aa500000000U, 0x3e1081c33f68c7b8U, 0xbf757c10bf41bdcfU,
  0x3f283046be8f0f8cU, 0x3ed301323f7d4695U, 0xbf7fff5cbf0b44f7U, 0x3ed72023bf095cd8U,
  0x3f2679443f7d9872U, 0xbf761e25be936811U, 0x3e197969bf4040b3U, 0x3f562f103f69b6c8U,
  0xbf58a1e7bc110515U, 0xbe078738bf67d3fcU, 0x3f74d50e3f433708U, 0xbf29e3e93e8ab42aU,
  0xbecede06bf7cefa4U, 0x3f7ffa393f0d2a4dU, 0xbedb3ac23f0771f7U, 0xbf24beeabf7de538U,
  0x3f76bb4b3e97bd9fU, 0xbe226dfb3f3ebfbdU, 0xbf54ef31bf6aa128U, 0x3f59d4d03c9103a1U,
  0x3dfd13e83f66db9aU, 0xbf742922bf44ac57U, 0x3f2b9424be8655ffU, 0x3ecab6b33f7c93a0U,
  0xbf7feff4bf0f0ccdU, 0x3edf50fdbf05845eU, 0x3f2301433f7e2ce7U, 0xbf77537fbe9c1024U,
  0x3e2b5f4bbf3d3af2U, 0x3f53ab0c3f6b86d4U, 0xbf5b035cbcd981cfU, 0xbdeb144dbf65de97U,
  0x3f7378513f461db4U, 0xbf2d40ee3e81f523U, 0xbec68b51bf7c328cU, 0x3f7fe08e3f10ec6eU,
  0xbee362bc3f039417U, 0xbf214057bf7e6f7dU, 0x3f77e6bc3ea05f86U, 0xbe344d2a3f3bb25dU,
  0xbf5262a8bf6c67c6U, 0x3f5c2d823d10fdcfU, 0x3dd90ffb3f64dcf7U, 0xbf72c29ebf478b17U,
  0x3f2eea3ebe7b2356U, 0x3ec25bf23f7bcc68U, 0xbf7fcc05bf12c927U, 0x3ee76fedbf01a12eU,
  0x3f1f7c2f3f7eacf8U, 0xbf787500bea4abb1U, 0x3e3d376dbf3a2603U, 0x3f51160b3f6d43faU,
  0xbf5d533fbd3537cfU, 0xbdc7074fbf63d6c1U, 0x3f72080d3f48f47aU, 0xbf30900b3e72575dU,
  0xbebe28aebf7b6138U, 0x3f7fb25b3f14a2f0U, 0xbeeb78783eff5755U, 0xbf1db4d4bf7ee558U,
  0x3f78fe493ea8f48eU, 0xbe461de43f3895eeU, 0xbf4fc53dbf6e1b6dU, 0x3f5e748a3d596e2dU,
  0x3db4faa43f62cbf8U, 0xbf7148a1bf4a59d5U, 0x3f32324fbe698688U, 0x3eb9f1993f7af0fdU,
  0xbf7f9390bf1679bcU, 0x3eef7c4bbefb672fU, 0x3f1bea4f3f7f189bU, 0xbf798293bead3a09U,
  0x3e4f0061bf370224U, 0x3f4e70453f6eee18U, 0xbf5f9160bd7da02eU, 0xbda2ea58bf61bca3U,
  0x3f70845e3f4bbb21U, 0xbf33d0ff3e60b104U, 0xbeb5b6c9bf7a7bb9U, 0x3f7f6fa43f184d84U,
  0xbef37b503ef771fdU, 0xbf1a1caabf7f46c0U, 0x3f7a01dc3eb17c09U, 0xbe57deb83f356ab0U,
  0xbf4d1729bf6fbbf9U, 0x3f60a9ba3d90e68cU, 0x3d90d6c83f60a8c7U, 0xbf6fbb47bf4d1857U,
  0x3f356c15be57d6feU, 0x3eb178553f7a016fU, 0xbf7f469abf1a1e3eU, 0x3ef77573bef377d7U,
  0x3f184bee3f7f6fc6U, 0xbf7a7c21beb5ba7bU, 0x3e60b8babf33cf97U, 0x3f4bb9ef3f70850bU,
  0xbf61bd92bda2fa1aU, 0xbd7d80a2bf5f906aU, 0x3f6eed633f4e7170U, 0xbf3703863e4ef8a4U,
  0xbead3651bf798222U, 0x3f7f18703f1bebe1U, 0xbefb6a9f3eef78cdU, 0xbf167823bf7f93adU,
  0x3f7af1613eb9f547U, 0xbe698e3a3f3230e4U, 0xbf4a589fbf71494aU, 0x3f62cce33db50a62U,
  0x3d594e9d3f5e7390U, 0xbf6e1ab3bf4fc665U, 0x3f38974cbe461623U, 0x3ea8f0d43f78fdd3U,
  0xbf7ee529bf1db662U, 0x3eff5ac2beeb74f6U, 0x3f14a1543f7fb273U, 0xbf7b6197bebe2c59U,
  0x3e725f0bbf308e9eU, 0x3f48f3413f7208b2U, 0xbf63d7a7bdc71709U, 0xbd35183cbf5d5240U,
  0x3f6d433c3f51172fU, 0xbf3a275e3e3d2fa9U, 0xbea4a7f3bf787486U, 0x3f7eacc53f1f7dbaU,
  0xbf01a2e23ee76c66U, 0xbf12c78abf7fcc19U, 0x3f7bccc33ec25f9aU, 0xbe7b2aff3f2ee8ccU,
  0xbf4789dabf72c33fU, 0x3f64ddda3dd91fb3U, 0x3d10de393f5c2c80U, 0xbf6c6704bf5263c8U,
  0x3f3bb3b5be344563U, 0x3ea05bc63f77e63eU, 0xbf7e6f45bf2141e0U, 0x3f0395c9bee35f32U,
  0x3f10eacd3f7fe09dU, 0xbf7c32e2bec68ef5U, 0x3e81f8f5bf2d3f79U, 0x3f461c733f7378eeU,
  0xbdc717c8bd11adfeU, 0x3d118ea7be6548c6U, 0xbc1ae619be120e96U, 0x3e15540fbc2b94eeU,
  0x3e1dd8c43dc7f15dU, 0x3c5e08ba3e178072U, 0xbe1d6a3f3c2678cfU, 0xbdc4ba3c3e005d75U,
  0xbd5c6435bc832cc1U, 0xbdb6af74bdf42a3eU, 0x3cebe2533d850727U, 0xbd39a31dbd933259U,
  0xbda8befe3bc2d34fU, 0xbe3bdc803e0ed0afU, 0xbdb54090be2c83d0U, 0xbe595044bd8c0f88U,
  0xbcedcb5e3dfcf9b0U, 0xbd04df7abdde10d2U, 0x3e300aa83e0d6f1bU, 0x3dfa5e0ebe35ca2fU,
  0x3e086b7c3cf5c6c6U, 0xbe2c5da2be4d4816U, 0xbe4346e63e15b568U, 0x3e4320553dbb1d9aU,
  0x3d9d7d0bbd2f0ab5U, 0xbdfed65dbda26e37U, 0xbe80efe73d2350a3U, 0xbe2bacef3e23609aU,
  0x3d2e48f0bea2ff18U, 0xbdd7b0c8bd88b5d9U, 0x3d1495f4be01d1b2U, 0x3d34ca89bdbcda28U,
  0x3e0b2366bc921072U, 0xbe5972333cc501b6U, 0x3e4d740b3d501cdcU, 0x3e49deedbd000ffdU,
  0xbe69419c3de9d301U, 0x3d8dd019bc999d23U, 0xbde43f42be474976U, 0x3e253bd3bdd18993U,
  0xbaa0a989bd8e2fc9U, 0x3dfda8cbbe0057f4U, 0x3e17a62bbe5d4ab4U, 0xbdc62154bdf85185U,
  0x3e45d08abdd5aa4cU, 0x3e3d1e27bc31c5aaU, 0x3e1c44aebdd7fde0U, 0x3e1b8fb03dc4d7a9U,
  0x3e197c40bd4a6185U, 0x3e7b0c17be382d13U, 0xbe16e346be168eb3U, 0x3d361dbabe0328f0U,
  0xbdb659323e078028U, 0xbdc74aec3cb28376U, 0xbd7d571dbe32d58cU, 0x3e3660853e049da4U,
  0x3dadbfd63d34ebc3U, 0x3dbad25ebe193616U, 0x3b85b9dabe5b81a9U, 0xbe443f3c3d55b2afU,
  0x3d772dc33caf09c9U, 0xbe7ea0dfbc8ad09cU, 0xbe3d39383d193592U, 0xbd9eaf0e3d56849eU,
};


ai_handle g_network_weights_table[1 + 2] = {
  AI_HANDLE_PTR(AI_MAGIC_MARKER),
  AI_HANDLE_PTR(s_network_weights_array_u64),
  AI_HANDLE_PTR(AI_MAGIC_MARKER),
};

