/**
  ******************************************************************************
  * @file    network_data_params.c
  * @author  AST Embedded Analytics Research Platform
  * @date    Sat Feb  3 13:48:14 2024
  * @brief   AI Tool Automatic Code Generator for Embedded NN computing
  ******************************************************************************
  * Copyright (c) 2024 STMicroelectronics.
  * All rights reserved.
  *
  * This software is licensed under terms that can be found in the LICENSE file
  * in the root directory of this software component.
  * If no LICENSE file comes with this software, it is provided AS-IS.
  ******************************************************************************
  */

#include "network_data_params.h"


/**  Activations Section  ****************************************************/
ai_handle g_network_activations_table[1 + 2] = {
  AI_HANDLE_PTR(AI_MAGIC_MARKER),
  AI_HANDLE_PTR(NULL),
  AI_HANDLE_PTR(AI_MAGIC_MARKER),
};




/**  Weights Section  ********************************************************/
AI_ALIGNED(32)
const ai_u64 s_network_weights_array_u64[2257] = {
  0x3b9a41a7bb9a41a7U, 0xbc6a5c8abdd49d23U, 0x3e4484093d829a2eU, 0x3cb91f42bde118ddU,
  0xbe0cb03fbbf9adeaU, 0x3d4b55723dcd5eacU, 0x3e3515583de1238aU, 0xbe2d58debdef6f6aU,
  0xbe2651b3bdc2d177U, 0x3e0dfd98bdf39f94U, 0x3d8128cfbd9c29e6U, 0x3c13e26abd5d67c9U,
  0xbdb65fc93d8991b3U, 0x3dfe7b6c3e615ce3U, 0x3d90d9d73e06327dU, 0xbd472cf9be16539dU,
  0xbe5459a13d57debcU, 0xbde462903df6d8f9U, 0xbe5dee14bdd62a6dU, 0x3dd601683e41052eU,
  0xbe2fb05a3e089e53U, 0x3db852283e1b0f54U, 0x3dfa410e3d3fae8eU, 0xbe3354e93dfbca34U,
  0xbe5261c03dbfb5c2U, 0x3da80de6bca4cd58U, 0x3cfac0383d33f185U, 0xbdff88c4be1a11a7U,
  0x3e07d5d4be392753U, 0x3d16349c3ca8408fU, 0xbe22e70ebd0870e8U, 0x3def118a3d54df87U,
  0x3ccc4e743c3bb7e1U, 0x3e249d60bc80ecdfU, 0x3d0816acbe37d041U, 0x3d0285cebdb38948U,
  0xbd498a41be0b58b3U, 0xbe533fd03ad8035cU, 0x3da8e80cbe4aefb2U, 0xbe3d03113e17b44bU,
  0xbe1c13253b20e1f2U, 0x3da2d7643ccf3710U, 0xbd9a7040bddc8c7bU, 0xbe1f1282bdc5a04cU,
  0xbe2e12b5bbff0749U, 0xbd2c330a3d31d706U, 0x3d655f1cbe298364U, 0x3de3a6e03dc2b8dcU,
  0xbe32ea44bb4051a7U, 0xbc9ca09abd905247U, 0xbdf5df32bd446758U, 0xbe0a97a43e34aed4U,
  0x3d2b80de3d94a523U, 0xbcb45ad1be0c3cabU, 0x3d9f96cfbe3896bdU, 0xbe0ee9e9be350fccU,
  0xbe28eeeb3d84dbd6U, 0x3e0c7a9a3e178262U, 0x3e0b92623dfc71c9U, 0xbc8593d9be1973eeU,
  0x3e030015bcec9c6cU, 0x3e0607f2bdb4044eU, 0xbdf81873bdb952a6U, 0xbdd86e1f3e5a3382U,
  0xbd2b3151bd4b93b5U, 0x3da7bcacbd8ad835U, 0x3c6298433d9725d6U, 0x3d1d4d0b3e6fb6f3U,
  0x3da654d63ded70a9U, 0x3d4ad9023b03a4ecU, 0xbc784b033d72eeadU, 0x3b56498ebce88294U,
  0x3ddd933dbc966f79U, 0xbda94bb73ba1038bU, 0x3d314cd6bcc8df7fU, 0xbbd8522ebe06b4ecU,
  0x3c755193bb0178a4U, 0x3b6e7a07be0538fbU, 0x3e16ff9a3c9d9188U, 0x3cf7bfc03c9d81ddU,
  0xbe03216bbd0966fdU, 0xbd864c22bdc84527U, 0x3d9e1aaebd65b070U, 0xbccba69abd3c0e96U,
  0xbe5c4e39bcd8e600U, 0xbd8922de3d819875U, 0xbd12786e3d4d7ce4U, 0x3d9553393de6ef06U,
  0x3d9124093c9811e7U, 0x3d1d50763d983760U, 0x3e4d50f8be396a8fU, 0x3c62d06d3d992700U,
  0xbce6beae3d7fa51aU, 0xbe050680be038d0dU, 0x3c94ffc63db61ba5U, 0xbdaca05b3d3bd93bU,
  0x3d34abc6bd089062U, 0x3df8b8e4be0cac35U, 0xbcdc42ddbe1e6199U, 0x3d942b113d1d6ab7U,
  0x3c76dce63d6da577U, 0xbc5440a3be16bca0U, 0xbd9cbeab3d1898c0U, 0x3d6fb8a4bdb8d460U,
  0xbd1a9167bd81e8c1U, 0x3db4c4fdbd3115d4U, 0x3e3382c03c544977U, 0x3d80b59cbe1505b2U,
  0x3d64514dbd67e55aU, 0x3d57239c3dcfa4dfU, 0xbd37f2a5bc40731aU, 0x3d07741c3e1705daU,
  0xbcd0c5193ce5b336U, 0xbe054fe8be0514c8U, 0x3d2147c33d7287cbU, 0x3d313ab53c969b00U,
  0xbdbd8c5d3e5cff19U, 0xbd0b23a03d827db3U, 0x3d83e1bcbd416bbaU, 0x3d3ed495bd907fb8U,
  0x3d83698dbd8285e1U, 0xbd8ac7773d09bfcdU, 0xbd5dd63bbddf89a3U, 0xbd9ee9eebe28e266U,
  0xbe004152bda898a1U, 0xbdcf0730bdb7ee49U, 0xbd8805d43d8400d5U, 0x3db739dbbcb80d76U,
  0xbdd236093c85dd27U, 0xbdc05072bd63c910U, 0xbd2331073e147931U, 0xbc3da707bddec139U,
  0xbd98dd273dd0e91bU, 0x3dca34033d47971cU, 0x3cf3e3b4bd0f030eU, 0xbb36183fbbc420f2U,
  0xbdce2c3c3de26fb3U, 0x3c1774c83d191809U, 0xbc5452d0be4dba2bU, 0xbb9512a8bdf796a6U,
  0x3d9dd9253e07a340U, 0x3df9305c3da8e5b6U, 0x3d96927abd203d33U, 0xbd79eedcbe107ab3U,
  0xbe40fecbbd4d0954U, 0xbda71ebf3e301bc7U, 0x3d6e18213ded757eU, 0x3d630d973d00c65fU,
  0xbdf86a7a3e3214baU, 0xbda5d683bcf465ebU, 0xbc527828bcc279d2U, 0xbd38356dbce68aa3U,
  0xbe1788e63d70ededU, 0xbe3b4906bd600890U, 0x3da473a6bc01f32eU, 0x3d477b66bd823dfcU,
  0xbc0de0123dd7f371U, 0x3caabab83c88333eU, 0xbdea6a7a3b02bf7cU, 0x3d0b73c03ccc676aU,
  0xbe00766dbc32f341U, 0xbd05d95c3db8574aU, 0x3e0ddf26bdaad360U, 0xbd806959bde6e870U,
  0x3dcb880abda07dceU, 0xbdf278a1bd7f3a21U, 0x3d651b193d281d90U, 0xbd1623463e0287d2U,
  0x3de3af3f3cda78e0U, 0x3dfe17783c01622dU, 0xbe0c1ed03d4b16e6U, 0xbda76120bd1d21eeU,
  0x3d0180c83dbeef51U, 0xbd2d3ec1bdd99074U, 0x3d0101303d3dcfd7U, 0xbd6d5f2dbd9a9f5bU,
  0xbc54f6ca3d9d775cU, 0x3d9b2094bd8e8596U, 0x3d86b94d3ce83e5cU, 0x3e029ab83a9a63daU,
  0x3bf2223abd92b1f6U, 0xbe4d6e1c3d6ada28U, 0x3c2a8ca0bcf28093U, 0xbdda5d0f3d9b14b5U,
  0x3d2fae3e3ba7643bU, 0xbddb54febd260b98U, 0x3d2d57e7bbbe67bbU, 0xbd90ef5d3cbff230U,
  0x3da7465b3e195117U, 0x3e38ea8ebb8527afU, 0x3d1cb15cbe09ae1fU, 0x3d06a98f3d0e2875U,
  0xbd9bd89bbc377c9dU, 0x3d35da31be61104eU, 0x3d4018c33cf6ad0eU, 0xbe59cfbf3e131576U,
  0x3e03da9abdf73f3eU, 0xbde049efbcfa0d12U, 0xbc1b6a0f3c828b8dU, 0xbd804f213c415a01U,
  0x3d4d03f8be19cc07U, 0x3daaaad03d5b05c4U, 0x3d8c9f1fbcb9d837U, 0x3d65b1083d8c2d49U,
  0xbc87085a3d8cca11U, 0xbdf4dfae3dd7214eU, 0xbc4625dd3c095bd4U, 0x3dd4694fbd894a18U,
  0xbe0fc6593c055d54U, 0x3cfc3cb93d8e8a57U, 0x3e031ff4bd123141U, 0x3da138633de62d58U,
  0xbd37e167bd28eccfU, 0x3dc87ed0bbd693b5U, 0x3e32dbd6bd605176U, 0xbcba430f3d7cb17cU,
  0x3d77f675bc9a2116U, 0xbcd869b73dfb8dcaU, 0xbce330edbdef2700U, 0x3e17844dbdce6f1dU,
  0xbde8f372bbff7334U, 0x3df94d2a3bdb7d18U, 0x3d1e7f0e3cb8ce12U, 0xbd97ee5dbc958319U,
  0x3b988ff53d8fc94bU, 0x3de331973d9f2e8eU, 0x3d621d493cd96c05U, 0x3e0070dfbd65aeddU,
  0x3d3aa59d3cd98652U, 0xbd1d2d8dbddccbafU, 0x3dfd39873d730b4cU, 0xbe1ba80d3c8d796aU,
  0x3d6880e9be007f1eU, 0xbbec68c23d766db6U, 0xbdd9aa0dbdeba9e1U, 0xbdf61bb8bc8dff2aU,
  0xbd4dcf80be55f964U, 0x3bd91a493d128ebcU, 0xbd6c1042be03aeacU, 0x3da8ce523db42402U,
  0xbc08b2203b02a98cU, 0x3b8ff8bf3dba2b5eU, 0x3e3af8b0bd044fdfU, 0x3be362f6be2bbb2aU,
  0x3c92e461bcc0e1deU, 0x3bf7e8d6bd49042eU, 0xbdaead97bb480e8aU, 0x391126cc3d623b4bU,
  0xbe0ce30b3d041ff7U, 0x3cbdb4a03d21bd6aU, 0xbe4d71843d927ce4U, 0x3e5a22cebdc37446U,
  0xbd040869bd828293U, 0xbd894aaabe337a3eU, 0xbbd2cca9bdb9fc39U, 0xbd67d0aa3e4b9933U,
  0xbd6d231ebb993dd9U, 0x3c23dfb7bda5c6c2U, 0x3e12c8203c5279aaU, 0x3bdf0252bce87907U,
  0xbd7e0eb7bbbe38a6U, 0x3d85413d3dd1e0ddU, 0x3ce5e1dabdcf2c09U, 0x3d82d12839529f18U,
  0x3d7a3489be3e1879U, 0x3c9d56393d9f7668U, 0x3ccf760dbe05f34dU, 0xbc3bf9253dce1663U,
  0xbe05a47b3d5bd56cU, 0x3d800f9c3c1d5e82U, 0x3d733ac8bdfdac0eU, 0x3d758f6e3d25d7d0U,
  0xbb55819b3c975596U, 0xbd1d9a88bc35949bU, 0x3d22f4dabda03e52U, 0x3d23312abdf0ef97U,
  0xbc9ad876bd094715U, 0xbe23d5febdcf063fU, 0x3daa4fa03c8784cdU, 0xbd56f122bdccd0b8U,
  0xbd18681a3e14ba85U, 0xbddfb99e3b79a6f0U, 0xbcd54fafbd1a540fU, 0x3d5f6d90be2d518eU,
  0xbe50ddd1be00c6fcU, 0xbdc7c5eebddbac1eU, 0x3dab5f34bcc34009U, 0xbd5f21f93c85df74U,
  0xbab918673d0e95f3U, 0x3e34aef73dea9e51U, 0x3d7f91b3bdb1d398U, 0xbd37df6a3d2b83e7U,
  0x3da65af33d064a02U, 0xbd4c756abcacfac0U, 0xbe1aad12bd7a8500U, 0x3dd209ae3c934e2dU,
  0x3c9c01993d4b0a84U, 0x3e07276dbda05097U, 0xbd9bf3cc3d9855dcU, 0xbcd2ac1cbe33aa62U,
  0x3da4ec9d3de5d2d4U, 0x3dca1fa7bcb0bdacU, 0xbcf21f243d4a5dbeU, 0xbe0ed890bb61b041U,
  0xbb9cbde4bd335282U, 0x3bb4ad7f3da6d820U, 0x3cd37b1b3de98e00U, 0xbcf518213d367fbcU,
  0xbdd1955bbcfe1164U, 0x3dac499ebcb7f5f5U, 0xbdef7a423da658faU, 0xbde8ddcebd05217eU,
  0x3d6ae11e3d64eedeU, 0x3e4d9c9ebe119d0aU, 0x3d401b13bc6d0d74U, 0x3dc7083f3deb3521U,
  0xbd1afd32bd4842cdU, 0xbdd0d0e63d9d35c0U, 0xbe4040473c13180fU, 0x3dcba2613d3a3482U,
  0xbda894293dd6d6cbU, 0xbd48b14f3d22245dU, 0xbbed628abd29d6b4U, 0xbcb4f4153de2db60U,
  0xbcd9358d3de3711fU, 0xbd2db76a3d1c7947U, 0x3dce3cb8bd66ab09U, 0x3d801d00bc6ba494U,
  0xbc89d50a3e7bb674U, 0x3d87d9023d0fb837U, 0x3c42c5bfbb9a219dU, 0x3caefff83d55eee5U,
  0x3c7f6aefbbd31587U, 0x3c69952e3d502521U, 0x3e29fdce3ddb089fU, 0x3e134e1abd5f2493U,
  0x3d8bb2f93d9e69d1U, 0x3cdee4fabdbc1a92U, 0xbd915115bb4b5253U, 0x3afedb62bdeaea6eU,
  0xbc7d4a2abe535312U, 0xbd1e0d53bd04297aU, 0xbdc6a06e3df759b7U, 0xbda254f83cbf8edaU,
  0x3d09227f3e0e4d66U, 0xbad8bc233bb6fda0U, 0xbd4d04b2bc52a642U, 0x3da9c7c33b83eb85U,
  0xbd1c18583db87687U, 0x3cae7d4d3cc91094U, 0x3d7e392ebe06fc9fU, 0x3d5ba154bd2574a0U,
  0xbd568958bd9e00e7U, 0x3dcbd29d3c965894U, 0x3c2a57d63e00c34bU, 0xbd605cedbe28d84bU,
  0xbcfd19d33d9ae26dU, 0xbcbed2f1be073466U, 0x3c377319bcd34b44U, 0xbd057425bdc1277cU,
  0xbe00da2b3c8ebf7bU, 0xbde5198a3b566befU, 0xbdf6e9543d467863U, 0x3d85e579bd055e8bU,
  0x3dc9ea55bc9f881aU, 0x3dc161b63c9ccd4fU, 0xbbb564de3e3ca580U, 0x3d8321a2bdb18110U,
  0xbbaade9c3e1f3e9eU, 0x3cbf4461bc197deeU, 0xbc3ce472be0c2b1aU, 0xbb9423e9bc8aa9d1U,
  0xbd972d77be116fc1U, 0x3c31a7cbbbffae7dU, 0xbd3296233b874547U, 0x3ded59943a181dc1U,
  0x3d9db93f3d2d2ca1U, 0xbc6bb15bbd19b829U, 0xbd04783fbe31737aU, 0xbd251bdbbd88e3daU,
  0xbd7c9781bd62c23bU, 0xbd1f465fbd104022U, 0xbde443bb3dcaebbaU, 0x3d979cfe3c84f042U,
  0xbe258a1fbc92acb1U, 0x3b0ee931bd0e6bf3U, 0xbd4c1cd7be0595deU, 0x3e75db323dafa94cU,
  0xbd89cbcb3c0061f5U, 0xbd2153983e2a757fU, 0x3deb508e3e3c38c2U, 0x3d95f89e3de28750U,
  0xbd8810f13cfe7b44U, 0x3cbb78e0bbe578f1U, 0x3c5a6e54bd9a0951U, 0xbd6c9d60bd914bf1U,
  0x3e22a001bca353c9U, 0x3c376f503e028ac2U, 0xbda2f78d3ddc8826U, 0x3dff6ffdbdbeb108U,
  0xbcaacaa1bc9fc983U, 0xbd8aa9183da7e08bU, 0xbc51717d3d186789U, 0xbe7b0f12be362141U,
  0x3d8101dabd7a2ff5U, 0xbd5363803d223e74U, 0x3d69ecb23e1466b5U, 0x3d86121abc0e0f52U,
  0xbdf3dc373d831978U, 0xbcd2fbf3bd699d64U, 0xbcb56766be03cf24U, 0x3cf7eab5bddf10b7U,
  0xbb8848123da40155U, 0x3bdfaba6bd4138e8U, 0x3d04a014bd7212b4U, 0xbdbcf9ccbd2031dbU,
  0xbdbf43c63d100980U, 0x3e24d4a03e09dcd8U, 0x3e0e7c11bd40acf2U, 0x3d4585603d529cc0U,
  0x3d6134c23dbfe956U, 0x3dee8a493dc90506U, 0xbdc43a7f3c82772fU, 0xbd78857c3d534b46U,
  0xbdbb701cbdc0c2cbU, 0xbdafbeb9bd0190a2U, 0xbd0da148bd8fab4bU, 0x3cb12f2abae7ea0dU,
  0xbdf133ed3de79a47U, 0x3cf361073ca2670aU, 0xbcbc25debde2ca6eU, 0x3c4b263bbdae8111U,
  0xbce16825bdb1cd8cU, 0x3d5a94b9bbd442a5U, 0x3ddef8a13c2be828U, 0x3e02a8b63dd4e46eU,
  0x3d9306e73d7d0074U, 0xbe1ff19f3d93d522U, 0xbe368790be2a3c7bU, 0xbd9ddf3ebdd0f325U,
  0x3be693363da13de6U, 0xbd2839613e3c64bcU, 0xba693228bdd0b189U, 0xbdaf04973e606770U,
  0x3d1576f23d325aa6U, 0xbd26d1de3a0d663aU, 0x3d5126ce3c0253bcU, 0x3d69af283c53a70eU,
  0xbd7db0bb3d1e506fU, 0x3d1e38d2bd09bbd2U, 0xbdc642f43d90908eU, 0x3d1fd3ddbc877aa4U,
  0xbc6474c8baf64c4cU, 0xbd7d42b3bd5faa89U, 0x3e3b2eaf3ce59ff4U, 0xbd00c4d83c27e396U,
  0xbdb501683ddd1ad0U, 0x3e0b3a34bc899548U, 0xbd288d6dbc04e328U, 0x3dbfc80bbcaaf2b1U,
  0x3dc70923bda1e8d6U, 0xbb8f407fbdd80e00U, 0xbbfb3923bd4d024aU, 0x3a74a96c3d57ebd7U,
  0xbca7300dbd0e253dU, 0x3de2fdf63db6b01cU, 0xbd8aade8bc0b6139U, 0x3df92fb13dc9657dU,
  0x3ca4a399bd297714U, 0x3c32a7893dc85fa4U, 0xbdd4bfc53c31bc2aU, 0xbd9194253dedf27aU,
  0xbc985e543e14b849U, 0xbd63e5ddbcc9a32eU, 0xbcc70cd93e192ed0U, 0x3e23ba34bc17eebbU,
  0xbd21af09bd10eee8U, 0xbdf4f1ef3def8465U, 0xbd69d5cb3d99c17aU, 0xbd4e998c3e0de631U,
  0x3e1be4e0bc22f4dfU, 0xbdb9b121be385582U, 0xbe17dea83d8866d6U, 0x3ca84d8e3d920d88U,
  0x3db65d95bdb709feU, 0x3d4d58693db79b1eU, 0xbdc34dc53c8bd258U, 0x3e0098a3bdab4ce6U,
  0xbcbbd9083d151c8bU, 0xbe2517b93c78cf29U, 0xbdbbeae13b27b9f6U, 0xbca919913c4bfbc2U,
  0xbdb2465abe12cfa1U, 0xbdd96062bd35058bU, 0xbdb8d394be1884b7U, 0x3d971f45be118fd0U,
  0x3d1109693c98c7deU, 0xbd8f1b7a3ca20758U, 0x3e4a4ebb3d35fd6bU, 0x3e010ba0bd271901U,
  0xbd97aeb63dc933eaU, 0xbcbb4d33bc9034daU, 0x3d15b828bc972e9fU, 0x3c75fb21be167728U,
  0x3cd83c6dbdd0d6a3U, 0x3d0cde79be37cf40U, 0x3d1a8e4d3b6ef299U, 0x3e140be2bd30cefbU,
  0xbcadea5ebcfef058U, 0x3e051a353d11ab22U, 0x3e09688f3d05a5a6U, 0x3b9157e7bd53d487U,
  0xbe004800be0bf024U, 0x3e3b5a473d01d412U, 0x3d2e36513c4d025aU, 0xbdb87cefbd49da29U,
  0x3db1299a3deef5b9U, 0x3c5a03723e5f635dU, 0xbdbeae903c966916U, 0xbdac7f363db7a34fU,
  0x3db5a1d53d97fd28U, 0x3db14a4e3e315a37U, 0x3de583bb3d1cddc2U, 0xbdf7701a3d1e0efbU,
  0x3b1bdce6bc428bceU, 0xbca0b6603c4fc999U, 0x3c2919303caaa5e4U, 0x3dd0a96e3c372901U,
  0x3bb48e31be096021U, 0x3d8306573c018812U, 0x3dd2ad7b3e5563cbU, 0xbe31f00e3e2a45c9U,
  0x3dbb47c93c97aa51U, 0x3d88a15cbd0d3131U, 0xbde4f9473dc93542U, 0xbd306641bdc8a193U,
  0x3e1168f13d43ad59U, 0xbd755f19bdea3042U, 0xbd99e0253cb88f6aU, 0xbd11709bbdbc4cbdU,
  0xbe0947713cdce3baU, 0x3c314f7abe113f55U, 0x3c7470033ba9a5b7U, 0x3e0db25abcbfaeccU,
  0x3d2080a23e139b39U, 0xbd814206be3bd418U, 0x3dffd107bc9575f5U, 0xbd3421bb3d71637cU,
  0x3c865f6b3e3e04e2U, 0xbd37614c3d39e218U, 0x3cf2e8013dc88889U, 0xbdbe5f373cf7347fU,
  0xbe239e6b3e2a47ddU, 0x3d7157d93c959149U, 0xbe0b35afbd547b68U, 0xbe39681cbc8af008U,
  0x3e00dd5fbdd21b11U, 0x3dc22a1abd121984U, 0xbe35a37d3e486bd2U, 0xbd9e340a3dd36236U,
  0x3b38839b3dcca9aaU, 0xbd0bc6953dbaaf88U, 0xbe023476bd6ff8eeU, 0x3d49104c3d2a3b69U,
  0xbda60434bcc57426U, 0x3d86cf3bbdeadb66U, 0xbd79d16dbdf18514U, 0x3acfd7683ce14fbaU,
  0xbe2fc81f3dcd6f23U, 0x3d163f633ddc38f0U, 0xbd1252da3d20125bU, 0xbe1e073a3de61f25U,
  0xbcae6f633da1a938U, 0x3d8eb3383bd79809U, 0xbcc9b5723cc629beU, 0xbd0011bc3c171890U,
  0x3daafa12bda7333cU, 0x3ce6f9f9bd5fbd92U, 0xbd81c180bcb7006cU, 0xbc96a9d0be0195fbU,
  0xbd3e16773e32a98bU, 0xbd4dd4b3be5ae46dU, 0x3d435ab9bd6f773eU, 0xbdfc3e6a3e1dbb40U,
  0x3e24067fbe2d3d60U, 0xbbe759453d06bf37U, 0xbd8588fdbd988bf5U, 0x3de43f22bd39e182U,
  0x3d95259dbe13d14bU, 0xbd3c6e0abd269e7bU, 0xbd7ca8483dd75c33U, 0x3de90509bd2ec5adU,
  0xbd4092fbbe1d0564U, 0xbd5b45313cdc250eU, 0xbd785532bda27346U, 0x3dedd7ddbe3db94bU,
  0x3deadd17bc6ce025U, 0x3d6b8e523e29ea07U, 0x3a91b09cbc1ebb90U, 0xbe99e918bd515fb9U,
  0xbbf6cab83c796dc9U, 0xbd5bc80c3d1d1191U, 0x3e3a2d323d614f4bU, 0x3d7e69633e1a0cc8U,
  0xbd8eeaa2be25c943U, 0xbe28810bbe1bc576U, 0x3e1f75d63df96488U, 0xbce8229b3d2d0a49U,
  0xbe274a033d122194U, 0xbd83225d3cbdb14bU, 0x3be8d9cabd375a96U, 0xbdc1150f3d51b61fU,
  0xbc0d19063e4f841aU, 0x3d67531cbada8e0dU, 0xbd893bebbe226083U, 0x3c6ba9b23db97a42U,
  0x3da11c463bd58460U, 0xbe48a134be0c67c9U, 0x3e2c2e5fbd5fd21fU, 0xbd3d093c3e09b704U,
  0x3e16b66cbdb9b4a9U, 0xbcf89c9bbc2bf405U, 0xbdcaeac9bc07e019U, 0xbdbd9e243e5663aeU,
  0x3d197ac6bd65b26eU, 0x3dc893c63db069abU, 0x3d8d928dbddc8bb5U, 0x3d9266ff3c9a5bfdU,
  0xbe5969d73cb76b62U, 0xbd807645bd8e2514U, 0x3da4011ebcaf312cU, 0x3d8aa07fbd382052U,
  0x3dda7c483e58c31bU, 0x3ce895e03d39e79aU, 0xbdf28f143e1ad360U, 0xbd68a1debd8ecf2bU,
  0xbcbd588abdcd9cc3U, 0xbd9674ff3cc570b4U, 0x3beddb5dbe14f519U, 0x3d040e48bd048d45U,
  0x3ca86a743c7bfa7eU, 0x3cd5a03c3caa4dbeU, 0x3d2ca4aabc79b0ffU, 0xbda174adbd3ebe3fU,
  0xbc604873be49cbdeU, 0xbd8f4b72bb238868U, 0xbd376c9a3de35affU, 0xbd9c0e92bcaf154dU,
  0xbda36d673a074f9bU, 0x3bab2afcbc0d514fU, 0xbc12ed66be18a35dU, 0xbde1bae23debde7eU,
  0x3dee35ecbd43e4eeU, 0x3d1640063dc30fecU, 0x3db2b9f9bddfd206U, 0x3d9a3bfebdc56edaU,
  0x3d8990d7bca59576U, 0xbd40dd1c3dc93bfbU, 0x3dc233eebd0d036cU, 0x3c882210bde5a10dU,
  0xbe4b3a593d15db1bU, 0xbda4b9003e39396bU, 0x3c8544113d91f2eaU, 0x3ddf2ab3bd9fa3a4U,
  0x3e208f583d651462U, 0xbd12e1f63da61d0aU, 0xbcee3ef93bab6252U, 0xbdda47743d6f251aU,
  0x3ddc9657bc230513U, 0x3db40eefbde52956U, 0xbd31b3883d9d311aU, 0xbd1a19573d97d505U,
  0xbbb0258a3dc0a6a4U, 0x3d4f721a3e0fd369U, 0x3d1bc47cbdd2f78eU, 0x3d4923fd3cb83b0fU,
  0x3df2ad39bd898d21U, 0xbd8a4c2dbc6805eeU, 0x3da584683dd7b1ccU, 0xbb3b71f5be07976dU,
  0x3d1d07ca3d86aee6U, 0xbe335c0cbd4ca064U, 0x3ddf8c9a3de40174U, 0xbd143deebd1f6425U,
  0xbdcec1edbdac4f94U, 0x3d11efb8bdb77e7dU, 0xbdd8cb0a3e069669U, 0xbdc82a0cbe3c6dd8U,
  0x3df00f193d945160U, 0x3d5ad92ebe4bd5bcU, 0x3d56883cbd78a7fcU, 0xb96f8a1cbd965970U,
  0x3c9731c63d7b32e5U, 0xbdb80aad3d5988b5U, 0x3d3ee58abca46c64U, 0x3d33ebd03d9456caU,
  0xbdd2c45b3ba28767U, 0x3d9422db3d2a919cU, 0xbd043b2b3e62abf1U, 0xbdb6ab83bd226008U,
  0xbc475da53b4229c6U, 0xbd1561323dfd6271U, 0xbcc6c57abdd75beaU, 0xbc1d415c3ca9203dU,
  0xbe192ff83d0daea7U, 0x3d8c7ccebd9dfd1fU, 0x3c471d1bbd6bd029U, 0xbdc73dc13ded61c4U,
  0xbd38f61cbd774068U, 0xbdf6eade3d74f360U, 0x3c87639c3cd13f98U, 0xbcc51762be22584cU,
  0xbe01cfaf3b0b8d2eU, 0xbcc297093cb95226U, 0xbd94a1f63d3b7506U, 0x3be40b9e3d84a236U,
  0x3d413976bd48b2b2U, 0xbe1db49a3c51c802U, 0xbe60d17fbe2f750dU, 0x3d8ade913e5fea15U,
  0x3d667fb7bdc8375eU, 0xbdb36dfc3d97acdeU, 0x3dac6a4fbd395611U, 0xbd7a5dea3d965595U,
  0x3e3db3cb3c266a05U, 0x3d84f796bce4152eU, 0x3d7a808f3e382db8U, 0x3de436793d82c240U,
  0xbde9c5cc3da286faU, 0x3e80d2d3bd904637U, 0x3c4095863d103c5dU, 0xbbaea29e3e00753aU,
  0x3d8da5b53e05c4c4U, 0x3cb1a538bdcd692bU, 0x3c4f7b48bd526e47U, 0xbd2144d6bc8deb70U,
  0xbda69ce33da3b063U, 0xbd8e865abcea4330U, 0xbe8eca6d3d629c2fU, 0xbd7226a03dcb364aU,
  0x3d1f20c13c02b14dU, 0xbcf79bc4bd0e1d28U, 0xbd005abdbe13793eU, 0x3c832a24bc9ecd1dU,
  0xbd0aef383e1e5de8U, 0xbcc6d04ebdceb1fdU, 0x3d029228bd17fc9eU, 0x3ca783e7bd12b58aU,
  0x3d7e57a2bdab7aafU, 0xbc2f4bdfbe09208cU, 0x3ce446be3d425b18U, 0xbcd905233d890a90U,
  0xbb56301dbe31ddc5U, 0x3aba641a3cb4ccdfU, 0x3e0df7eabdb776e4U, 0x3d4e44d43dd93e3cU,
  0xbdb77bc9be02fd4eU, 0xbdded257be1f436eU, 0xbdcf6bd6bd99c2f7U, 0xbdf2abb83e158e59U,
  0xbd897496bd0e4ed3U, 0xbd151c3e3c1c5676U, 0xbd5d14cfbdc241b5U, 0x3cd7773d3c26ce8aU,
  0x3e2bd96dbd127815U, 0xbd99c1b4bd760f9bU, 0x3d166834bce45f58U, 0x3cbe5877be1494e4U,
  0x3c3b73dc3dcc8c0cU, 0xbc2a71fc3df6d094U, 0xbcf6470ebd9afd59U, 0x3cadee1dbd2e2f0bU,
  0x3bccf53abd7c73d0U, 0x3d502b32bccdcb21U, 0x3cb8579d3ccea886U, 0x3cee89d23e4bb810U,
  0xba0bfc983da26dd1U, 0x3e24430f3e46d693U, 0xbdc30ac7bd83b6d6U, 0xbd044750bdf30b48U,
  0x3d087114bdaccfb7U, 0xbd028496bc3b2aecU, 0xbd1d2f7f3c74ec9dU, 0x3e3e4d023b33db97U,
  0xbe1573743da26f17U, 0x3d5d48f9bd719e0fU, 0x3aae86043e1541a5U, 0xbc406531bdcb7daaU,
  0xbd210268bd73c671U, 0x3d53a734bd9768dbU, 0x3d3d30d7be1177d0U, 0xbbf9707c3d5d28c8U,
  0x3db7b37f3e07bc5fU, 0xbc35c12b3dd88673U, 0x3db2ba54bd86b258U, 0x3a6cb563bd454945U,
  0xbc22a1aabd80b215U, 0x3c6169c03e64a055U, 0xbccf36dfbbc65518U, 0xbe8a3471bd83a8d8U,
  0xbd07d6ff3ddf1e26U, 0x3d9ba2f33ce65c75U, 0xbdd5d5e43ccdc6d2U, 0xbb64ea603c369365U,
  0xbdc862a03e1889aaU, 0xbe3d2c3e3d91024bU, 0xbb9e4dd6bc88cd75U, 0x3c3b07613e2d808bU,
  0x3d9d1451bd4bd246U, 0xbba43f263d60de15U, 0xbd4c945d3dc574e8U, 0x3bc390793e19057eU,
  0x3d3a0986be1f4357U, 0x3dc7b89bbd7827e2U, 0xbda99aa5be068f50U, 0xbce89508bdd65190U,
  0xbc9dd4e63c3a06cfU, 0x3e00107bbda198d3U, 0x3c9e35523d14ca54U, 0x3cc312f03ce0bb0dU,
  0x3b71ee7f3c7381b2U, 0xbd3baa40bd786810U, 0xbd9ed0883d285e88U, 0x3d87c26c3da46b32U,
  0xbe0b8497bbb69b0fU, 0x3d1e34233ddf8c08U, 0x3e06f443bcaac838U, 0x3d54b7763c4d5019U,
  0xbc6b90e3bd7e3493U, 0x3d52e1973daf8c8cU, 0xbe15aff9be0a28bdU, 0xbd49382abdffaf7bU,
  0xbd974eab3e26139bU, 0x3d21da00bccf550dU, 0x3df50893bd5611aeU, 0x3d9dec62bd4b47d5U,
  0xbdfc24ebbd696521U, 0xbc165222bdd48cc3U, 0x3d809f8ebd803f7aU, 0xbc5899f53deca685U,
  0x3ca21911bd64f8d5U, 0xbc8b86ddbe38b468U, 0xbcaa3484bd92da48U, 0xbd49583fbd867880U,
  0x3d2b7af93cab42b4U, 0x3c9e70cdbd54590eU, 0xbcefe4cfbdb338d7U, 0xbccf92d13d304296U,
  0x3e0d6ea43e010990U, 0xbcbd00a5bde33e23U, 0xbde47ed4bd064315U, 0xbda03645bda98396U,
  0xbddee75c3d0527f7U, 0xbe27ce01bda6d6b2U, 0xbbe2cf923c31feebU, 0xbdc8b263bdeb07d0U,
  0x3e3b1df4bd16f7a6U, 0xb8a74f483e455dcdU, 0xbd8aea623dc8ae8dU, 0x3e1a04493dafd4eaU,
  0xbc88e6053d95e1c0U, 0x3df98aebbb7940beU, 0x3df9f8da3ddb1d7aU, 0xbd834b04bda6edc0U,
  0x3d87269dbd17af4aU, 0xbddcfa5bbce6740fU, 0x3d5e7a263dc8cb7cU, 0x3ddd7dbdbd74b9d9U,
  0x3e0f5e74bcdce592U, 0x3cecdfb6bd0c5c07U, 0xbabc9b043debed16U, 0x3d2e4a9d3e5ff960U,
  0x3db7c16f3d6a2aebU, 0x3d2817a23e04a29eU, 0x3d66f0f43c32e2b2U, 0x3c6157e83de69fd7U,
  0xbb980fa13c926c2fU, 0x3e4f32c1be363cadU, 0xbdd31b023d0b901fU, 0xbdedfdfd3e45cea1U,
  0xbc8a14fcbdc1caa6U, 0x3e32d7e5bda3479cU, 0x3e18e6d03d822fc6U, 0xbe1a0b2fba9f211cU,
  0xbccb6f713ca3b6d3U, 0xbcd02afc3c950892U, 0xbdf095253cf935daU, 0xbd0864a2be254d6cU,
  0xbe12427a3e10b575U, 0xbe07a6923de84b85U, 0xbd8d97f43d13819aU, 0x3cf759b13d7f3a12U,
  0xbd477b143ce64e2bU, 0x3d1b5ec03d9a40dcU, 0x3e4017b3bc945166U, 0xbd453c35be0b247fU,
  0x3ca6eb923dbfc777U, 0x3c64d71d3dbfe654U, 0x3dae79b43df8f891U, 0xbe0ccbd53ddeddbbU,
  0x3cae0ce5bd2b090cU, 0x3c4573993cb89879U, 0x3cacc6a1be14376cU, 0xbe198a36bdac414eU,
  0x3bc301e6be3e4932U, 0x3db554a33d262779U, 0x3d77ea303ce876eeU, 0xbd8187ddbd7a18beU,
  0x3de62567bde4db1aU, 0x3d878b9cbdec1d6cU, 0xbdcab2e63daa894dU, 0xbdbfb836bbfb0416U,
  0x3a7022273cc8c6ebU, 0xbd5c68f83bc9714cU, 0xbe43d0893b7f1926U, 0x3d1be9373d52b0fbU,
  0x3d63d8e23d43aab1U, 0x3da651b3bdb924e3U, 0xbd10d864bc020afbU, 0x3d5e166d3d223b1cU,
  0xbdd92121bd948f84U, 0xbac4f8afbd85b5c7U, 0xbc7f56e6bc065990U, 0xbe3368a6bd32b44eU,
  0x3b8219193b82ae3dU, 0x3dc0450abdeb4976U, 0x3d30024dbd6da349U, 0x3e3f2af7bc61f57cU,
  0xbaa067c43e0fcb77U, 0xbc7def883c8c0289U, 0x3d301aedbd4414fdU, 0xbe1d78b63d4f5960U,
  0xbcda1be3bd16cd55U, 0xbd30d4d8bdccdebeU, 0xbe6aec2bbd988740U, 0xbdb059cc3d839cfdU,
  0x3d8740c23e22170cU, 0xbd26b50abd8b0e38U, 0xbd2742283cc42700U, 0xbe318c91bda5f89aU,
  0xbdcf9f5a3c221897U, 0x3c55e2d93cc2b610U, 0x3e3d08cd3d058ff8U, 0x3e1be6d93e24176dU,
  0xbd74483c3cabac7eU, 0x3d87f14fbccb90ebU, 0xbd26557cbd276f2aU, 0x3ce246063dc42888U,
  0x3c5e25dabdf046efU, 0x3df114673d719410U, 0x3cde83a43c9b7507U, 0xbcb8adce3d81345cU,
  0xbcf6ca063d8cfaf3U, 0xbdce94353d499599U, 0x3ddc4a9ab8a29df0U, 0xbdaa187cbe237cd8U,
  0x3e41e4abbd21e51cU, 0xbd6cf83abcab6021U, 0x3e127ba1bda84edbU, 0xbe26665d3d096c18U,
  0xbd4ce0833d12cbe0U, 0x3d521e023e02e2bbU, 0xbdf2133b3dd868bfU, 0xbc519c153d1e0afcU,
  0xbd6d3bf03dadb7bdU, 0x3c0f37803e80e279U, 0x3d72cecd3e067075U, 0xbb31d5243d9bbf9fU,
  0x3e889fbc3e196063U, 0x3b9e0003bc9df6dcU, 0xbd6d1e09bd631278U, 0xbd6f1206ba03fd76U,
  0xbd642e333c882ad9U, 0x3d76f4453c102dd5U, 0xbd161564be16dfcfU, 0xbca2ff02bb680cb4U,
  0xbcae105fbbe5358cU, 0xbdc7155ab86c7b40U, 0xbe3f6715be19c33eU, 0x3e10014f3da55efdU,
  0xbe22bb753d03a9e7U, 0xbcf23ad3bc6595caU, 0xbea1ca5d3c53dba3U, 0x3d3c4014bd8b661aU,
  0xbd470691bdc5cc63U, 0xbd54054c3ceb5dcaU, 0xbdad18d73c638032U, 0xbd5a7e953cef0d8aU,
  0xbd47b73cbc04dc39U, 0x3c9ba0663cae460bU, 0x3d19d1aebdc1dfc6U, 0x3d0411643d889cb0U,
  0xbdbe0ec2bbe0c4d8U, 0xbd637cd63e218545U, 0xb9e47916bd8a20e3U, 0x3d235776bc83f21bU,
  0x3d2618773d4dbc8eU, 0x3e0e9a993c790f23U, 0x3d1cedd23c494713U, 0xbcb1a6603cdb3f9aU,
  0xbcbb44a8bb442e0aU, 0xbc3083613e4a4a03U, 0x3d39ca5bbc12464fU, 0x3e0ab7623c380bbcU,
  0x3e29a4563cd8f691U, 0xbdb294443c67e06aU, 0x3dcbc19dbd9a4b6aU, 0x3dc5040dbbf5754aU,
  0x3de1d3163daa7b60U, 0x3e1b0406bcf06f31U, 0xbbd4c4b0bcae60fdU, 0x3d7dbc373cd69cb5U,
  0x3d33ad9abe34242aU, 0xbc6c71793bd657a5U, 0x3bba9949be0784beU, 0x3de1d125bd7bdd85U,
  0xbd99baf3bc1987b7U, 0xbd15d66b3e0b40d5U, 0xbd3e7939bdeab93dU, 0x3d0da33cbca34514U,
  0x3dacc4403d318d0bU, 0x3d4f6170be6a9882U, 0xbda391cb3d48b423U, 0x3e177d9b3da234c6U,
  0x3cf995993d8d2f5cU, 0x3d8da7b6bdb51a2fU, 0xbc74f31cbdbebf14U, 0x3dccf5bc3dec6d74U,
  0x3d8d33863cb50379U, 0x3d78f7d2be06b994U, 0xbd5aaebabc1f7f32U, 0xbd8b5c7abd72001aU,
  0xbd075ec5bce299b2U, 0x3d684c6f3dc30956U, 0xbca646cdbdc754c3U, 0x3dd00cfd3cc69133U,
  0xbccef03c3ddcfb5cU, 0x3d0f392cbe408af4U, 0xbb62d12ebdd30964U, 0xbd32b3683e29f71eU,
  0x3dee71203e5f005dU, 0x3d3c0feabd49749dU, 0x3d9b3a5abd51cb6bU, 0xbc2873013dd151b6U,
  0xbc877df83bd20a5bU, 0x3dd11dd63cbcf48fU, 0x3e482de23d5b66c3U, 0xbd2a3c7ebc9e35b7U,
  0xbd953d8bbd66cdeaU, 0xbdc08db4b9b02f8eU, 0xbdf401fb3e137798U, 0x3d9c38a83dcc2248U,
  0xbe07944ebd503000U, 0x3e2bb1ecbcbe8f64U, 0xbd457212bd44ba84U, 0x3d5483823b82d1a8U,
  0xbe501ed7bdd35d1cU, 0xbdb553b9bcd1ca79U, 0x3d085f8fbd316ee6U, 0x3d4428b13d04466bU,
  0x3dd4464d3cbf527cU, 0x3c6be224bdbaf2eaU, 0xbda1d18fbdbea9a2U, 0xbdfd96993e01f1eeU,
  0x3dbde4efba5af7a6U, 0x3de57ae93e21fec9U, 0x3ce508a83cb41c08U, 0xbcb3b91abce48c20U,
  0x3a246b993dee4fcfU, 0x3dda248c3da08090U, 0x3cefa6e0be1e9509U, 0xbd9a60c13d97a5dfU,
  0xbdaab9673cfcdfb8U, 0xbb78d473bc0dcd99U, 0x3da554463d934922U, 0xbd25f369bda4fe63U,
  0x3dd8e60b3c85e147U, 0xbd4fa4fc3e13ac2eU, 0xbd9e9487bde5405eU, 0xbdcd736f3caacfcbU,
  0x3da2340bbceacb33U, 0xbd77d1973d9d9d12U, 0xbb3cbae33e18af6fU, 0xbe240bc6be689e47U,
  0xbc6397873d08c32eU, 0xbc9d0550bcbfc79cU, 0xbe46e153bcfd7dccU, 0x3c1b8da33bab40d1U,
  0xbd67636ebda473b1U, 0xbe54a907bcdd3a7eU, 0xbd1b9c84bcdc8de7U, 0xbcc25157be3ca0a4U,
  0x3d98c43f3caec397U, 0xbd6c1cb9bdd4426bU, 0xbd015fd0bca1c6cdU, 0xbd994353be2b4b15U,
  0x3dc8948bbe05a130U, 0xbdcfc85cbdd2235aU, 0xbe034e4b3bbfb446U, 0xbd43be093d5a80ceU,
  0x3e4734873b2f9ea9U, 0xbd9974e9bd9c4d4dU, 0xbdf0bf7a3d5493d6U, 0x3dba1dff3cf5a3a0U,
  0xbcbead6a3e3cf6e5U, 0x3d37e19d3df20837U, 0xbd36e1ce3e02228eU, 0x3d3e868c3d177feaU,
  0xbd926ee83d2e18fdU, 0xbc3f8f84bd16aaa1U, 0xbdd19720be265862U, 0x3d6b82623de9937fU,
  0xbdbf783f3bece475U, 0xbd56205bbbdb1065U, 0xbd0b6fed3e108794U, 0xbc5e65e23b40cf86U,
  0xbcfec1c03dcd53bdU, 0xbe065636bda0a028U, 0x3da673303d892cedU, 0x3c2553b23dac1b12U,
  0xbe5aebbc3dbf0685U, 0x3e70ddc23d843a61U, 0x3d8599dbbd0b9beaU, 0x3dd738edbe2c599fU,
  0x3e109bf23d23698bU, 0x3dd62898bd58bad2U, 0x3bc60634bd9e6ec0U, 0x3d665170bd39732dU,
  0x3d9bb7733d97ff7eU, 0x3d8866e2bdefc7cfU, 0xbe123c64bca53eb5U, 0xbde5ccca3d978c8eU,
  0xbdad6643be266b1fU, 0x3c736b643d90bd50U, 0xbdf97dbf3d21aaa4U, 0x3b73ec403c27a831U,
  0xbbb391b4bdaecc48U, 0xbd0ce06f3c371cceU, 0x3d7da0bf3d5d78e1U, 0x3da83e6b3c9f5026U,
  0xbb9735a8be8518fcU, 0xbdea31e9bd50b852U, 0x3dd250213d9b496fU, 0xbe0de17b3deed619U,
  0x3c0015e5bcf2a05fU, 0x3b7a381f3dc3a23bU, 0x3c7c86373d38baf2U, 0xbcec4c713d0b6fa0U,
  0x3d87ee57bdb6afecU, 0x3d9aaa3b3c9e080dU, 0x3bacca07bdbeab45U, 0x3d908f60bd982f1bU,
  0xbd258068bdef525eU, 0xbd56aadebd4689d9U, 0x3ae099843d319edcU, 0xbd061f473d6b5c01U,
  0x3decb23ebc6a913fU, 0x3e2b645e3db31b65U, 0xbe2fc325ba1b92deU, 0x3e43145fbd8a4907U,
  0x3e49cc383b874b67U, 0x3c116250398dfc3dU, 0xbe3e4a9ebce5b1f1U, 0x3dee848c3cf581f7U,
  0x3e506d163d1ead99U, 0xbdda1e50bdd4e084U, 0xbc09e8d3bdbb1ddbU, 0xbc4ae2fbbde7dd15U,
  0xbab11395bdaeee5cU, 0xbd63bc463bfdacbaU, 0x3bacfd743da04bfaU, 0x3d88e15cbc783addU,
  0x3db6f094bde5bde4U, 0xbe80efce3c7c1dcdU, 0xbda6b2de3daf1ee9U, 0x3dd6b6203e3c6546U,
  0x3da8ef613dd54ce6U, 0xbd1e7190be02db17U, 0x3cd98a0dbd0eecc6U, 0x3e6cdeecbc17a394U,
  0xbdeef6773e5e0a08U, 0x3c6a66893d9070a4U, 0xbe136a373e0e2fbdU, 0x3dfd1a203c5f8ac0U,
  0xbd5deb3c3d2527f5U, 0xbe01b3af3deb715cU, 0x3da6ca733d775a25U, 0xbb858238bd3f02eaU,
  0xbdbf97c83dfcbdeeU, 0x3d6e9ade3d3823ddU, 0xbe27f5063d45fb74U, 0xbd80c93b3cb1f368U,
  0xbcd65448bcf71c8bU, 0x3d3349863da9ad0bU, 0xbd4724c33d31a22fU, 0x3dd49f8fbcf5f43eU,
  0xbdc544d8bc8e1f68U, 0xbd4fa102bd47cc41U, 0xbe6c4f44bd8ba36aU, 0xbbe03a6bbe281d5bU,
  0x3e1614f5bc651857U, 0xbc14cf283da94831U, 0x3c8e495abdfd13e3U, 0xbdda54813bf4ac6bU,
  0xbd0099053d2da5f5U, 0x3cbe8b37bc958d5aU, 0xbdfaaedcbd101e1aU, 0x3d8875e03cdf6f65U,
  0xbe0299c73ca83b42U, 0x3dd734723e5c9271U, 0x3daa8db03ded5f63U, 0x3d7c173ebe224f28U,
  0xbd2bc08ebd391146U, 0x3cf54bfd3e3c069cU, 0xbcfbd6323dc9a2e6U, 0x3e138836bdfe888bU,
  0x3c5760c63d94f2d0U, 0x3e2439e3be0db638U, 0x3da06d643db80a2aU, 0x3cfe378abe1938d9U,
  0xbd1df7a2bda7421aU, 0xbc29bd5dbc605c59U, 0xbc71b3243d632b19U, 0x3c412f173cf40d91U,
  0xbd894ee73d1fdb62U, 0xbda1d73bbcfbf84fU, 0x3db6803fbe18b85eU, 0xbd13af583d8601b2U,
  0x3d98cece3dcc6d5cU, 0xbd97d57ebce592caU, 0xbc197779bd9fd7c8U, 0x3dd92119bb69dc5bU,
  0xbdb0b0073cc0ef5aU, 0xbdee1601bdaf5482U, 0x3d27c269bcedc346U, 0xbdfeb9a53b9b8f17U,
  0x3ae7e3bd3d43a06eU, 0x3d929f35bd6103b2U, 0xbd4e7e1b3d235022U, 0x3c525e5fbd8d4404U,
  0x3dd50af3bce801d7U, 0x3dbd65b33d8be440U, 0xbdbc9b513dc75ae6U, 0x3c019a83bc812ffdU,
  0x3e2d3b86bd146cc7U, 0x3e3395d63d6fa605U, 0x3d77b62f3c78dc30U, 0x3d3fdb263cee4420U,
  0x3d3c5155bccfb3f3U, 0x3dbcadf2bd3038d6U, 0xbc9d592dbe1b948dU, 0xbd825f5dbd99c649U,
  0xbd4e3d133db10b52U, 0x3e4f39813cacf450U, 0x3da318e13d99fb77U, 0xbd22d7b63d1b5648U,
  0xbd04a35a3d3ab5b7U, 0xbdb09f3dbcd5e3deU, 0x3dbd614b3c0eb67cU, 0xbd414909bcf08080U,
  0x3e1312593d808bdaU, 0x3d30821f3dc7a4bbU, 0xbd0ec4693bdf9e83U, 0x3de81f6e3e173b90U,
  0xbda0d381bd2df478U, 0xbb24431c3cbedfc5U, 0x3b5729333d8fbbbaU, 0xbe9ba42abc6e38dbU,
  0xbdd6db85be02a3faU, 0x3d9eec7dbc8c963bU, 0x3d9726f73e0d09adU, 0x3d93dcb43e4fa9b0U,
  0xbdb2fa9ebde07b0fU, 0xbe30d4643c58ac16U, 0x3d00e02a3e2cfe92U, 0xbd82aadb3d79932bU,
  0xbd17eca8bde21ec5U, 0xbde1ea69bdb372d3U, 0x3dff629d3d06bbeaU, 0xbc3e39a63d9d6166U,
  0x3d9cc4bbbd8918f1U, 0x3cc5a4b83d3d8deaU, 0xbdaae5b23db405fcU, 0x3d555eaf3dedcaeaU,
  0x3d58ea3bbcef4e6fU, 0xbd5f252b3db22f24U, 0x3d7e0cf3bd43f069U, 0x3c36c9d0be860e6bU,
  0xbd9344ff3c6fc74eU, 0x3dfcf3c03d349f8cU, 0xbd747c463e010168U, 0x3d7e0aa03dbc926eU,
  0x3d6a257ebda207dcU, 0xbd8b9a99bd012ac2U, 0xbdad2546bd42fec2U, 0xbdc271bdbc3f3b32U,
  0xbc3df68d3dc91603U, 0xbd2bc7f6bdc755adU, 0x3d9b12323d454b1eU, 0x3db5a5cc3d879a74U,
  0xbcbee5a9be3e1013U, 0x3d83ff86bcb84bbdU, 0xbb6fa108bdcfe2bbU, 0x3d18420dbc346e75U,
  0xbcd4bcf43e3571e7U, 0xba0533aa3d912007U, 0x3d04c3773d3c654eU, 0xbdeb648abdadbc5aU,
  0xbbd1bac73c38cf1eU, 0xbdd03606be4c83a2U, 0xbca70a88bdf8772dU, 0xbc0a3716bbaa2a5eU,
  0xbd2a3d86be1190a1U, 0xbe2a8eacbce027f5U, 0x37ecbb403dc07f7fU, 0xbd8b84e73dbef135U,
  0xbd5c275ebd974f0fU, 0xbc3f6f9dbda82ab8U, 0x3e183bdfbe96437aU, 0xbc2d286dbc6b2cb6U,
  0xbd42d0fe3e66ddbbU, 0xbd43e503bd083388U, 0x3c7212ef3de8b65eU, 0x3d0fd955bd954c9dU,
  0x3dace5f93da4b6bdU, 0x3dc491e9bbeb4858U, 0xbdfa4c6abc0063e3U, 0x3df345debd59bf86U,
  0xbde52aabbdb4d85cU, 0xbd7c673d3c49ad33U, 0xbddad3e2bd80eb74U, 0x3da6919abe01cf94U,
  0xbd8f5856bd228db8U, 0x3e123d023e506cf6U, 0xbd9925bfbde40099U, 0x3d8eae7cbd846f42U,
  0xbcbcade639280a78U, 0x3e143f59bda5c696U, 0x3e43bcaabd020b44U, 0xbddd93d1bd7e9c86U,
  0xbdcdd40d3d587efcU, 0x3da5032dbd11bab6U, 0xbb5082bc3d161f87U, 0xba89fd7ebdbf6de7U,
  0xbd15f6e73e0d02c7U, 0x3e4c45ce3d98c86fU, 0x3ce61cab3d68c817U, 0x3c8c29af3ca609d3U,
  0xbda313a3bcb076c8U, 0xbca187d2bc81e893U, 0xbdaed3c9bd986321U, 0x3cc5d939bd674bcdU,
  0x3d635511bc437762U, 0x3d8c62dd3b316b31U, 0x3e14646b3ca35647U, 0x3e12690dbe067862U,
  0x3e191915bdb9f178U, 0x3ae0ca54bd5beb20U, 0xbdc740bcbd39e59fU, 0xbd34ada03dacd737U,
  0xbd73dd8c3d85df49U, 0xbdd34fd13de01e79U, 0xbc7fce783d939074U, 0xbd60628fbce1f19aU,
  0x3e17e6e33e010fe4U, 0xbda143283d1088f0U, 0x3d9ab391bcc1fbf5U, 0xbd03e7213d1090b3U,
  0xbe2c3e563c786158U, 0xbd36228c3caa7869U, 0x3d9107e93dea59dbU, 0x3d6b08973d17a092U,
  0xbda8a44fbdb585acU, 0x3d8b4dd2bc64242aU, 0x3cef0b6fbe337486U, 0xbc941f413e08e37dU,
  0xbd1920963d3043b0U, 0xbd4085063dd1e17aU, 0x3e540a68bbab2d40U, 0x3d077e2a3d64fa3aU,
  0xbd1b680bbae40314U, 0x3dd4b0f33d719e44U, 0xbd828c343e01ac0dU, 0x3c2f61cbbe050a76U,
  0xbc32e89838de36e8U, 0x3d6ff15ebd8059e7U, 0xbc7b18cebe0eec83U, 0xbd384f5a3ccbcf54U,
  0xbc941e16be0238f9U, 0xbe0cd46e3dab806aU, 0x3d615b6bbd0f88f4U, 0xbcd04e96bc580ca4U,
  0xbd2d0da93d7e668fU, 0xbc066d49bd784578U, 0xbae45d20bca1f715U, 0x3ccda7ff3d3f8babU,
  0x3dde92223df262deU, 0xbda7733cbe1d21e3U, 0x3d4a7a443d8874c7U, 0xbc2b1495bdb375caU,
  0x3d3e9b4bbc88c5cfU, 0x3cab2ebcbd8a3facU, 0x3e62c7ddbda60577U, 0xbcae2af3bd8c388cU,
  0x3d6647403e00e7ceU, 0xbe27f14d3db5b24cU, 0xbdb00c18bdd684b2U, 0x3d546d23bdb1e0eeU,
  0x3ddaca40bd9b304eU, 0xbd46da5e3d65af32U, 0x3daf843139a342f8U, 0x3d00cb373d1cb28bU,
  0xbdacd6eb3cbfb50cU, 0xbdb12163bcae4eeeU, 0xbd68dc9f3dca8da4U, 0x3e4ff2ec3d100890U,
  0xbd76e10fbe779a92U, 0x3c866c72bd18f73fU, 0x3dabf7f63dfd932fU, 0x3c7081c3bcf756bfU,
  0xbd36fdb7baa97818U, 0x3d8fdec1bceaab1eU, 0x3e0291a73ce6d3cdU, 0xbce8184c3e1ac359U,
  0xbe1825743e31f317U, 0x3dc0bec63d80f6eeU, 0xbde3d3523cb6b33cU, 0xbd8b1e3cbdc8af92U,
  0xbd98d4753c734af6U, 0xb892b3283c90ebe4U, 0xbc82c629bd4fd109U, 0x3dd068d53ccad84dU,
  0x3c464865bc2f80a5U, 0xbccf6f08bcd310efU, 0xbd897d3bbd7e9afbU, 0xbc690613bd27e27fU,
  0xbc7b90103d4ebc61U, 0x3dc325c33d75fd17U, 0xbd9e9439bdc32c11U, 0xbc3826e6bbe181abU,
  0x3d81a9ca3d8d5c29U, 0x3d07fa9e3dad303dU, 0xbddf775bbdcd3b61U, 0xbd2fe3293da17a93U,
  0xbccc5e91be00db35U, 0xbe2cc42c3dadc447U, 0x3e131be6bd92c9b4U, 0xbc92b96fbdf0d8fcU,
  0x3c9554d53d10e0c8U, 0xbd0cae803deb7975U, 0x3d2ace80bdde1cc0U, 0x3dab4264be1b19aaU,
  0xbd7e329d3d53f14dU, 0x3dced2453d879ac0U, 0xbc7fd8f13da08b0aU, 0x3da02b743df65939U,
  0xbcfa46c83d8ce509U, 0xbd8b918cbca011e2U, 0x3e3dce603d0a8ba6U, 0x3d4d624cbdbe003eU,
  0xbb450ce7bdc1a1fbU, 0x3d4bd0513ca6754aU, 0xbd0d312dbe722a0eU, 0x3e1015643d87558aU,
  0x3d568ff73e0a5005U, 0x3e46284dbe0d3ae7U, 0x3c874e92bcac52c3U, 0x3debb9863df0af3dU,
  0xbda40b28be487f46U, 0x3add87613da20f03U, 0x3d00f2d4bd996d71U, 0x3e015623bbb3e447U,
  0xbb48ab843d915371U, 0x3dd762a8bdc9b1e8U, 0xbdb16ea1be2d5c92U, 0xbe0b93373d4baa20U,
  0xbdb7d17e3df466cbU, 0xbda570833db44b84U, 0xbce22a3c3d691679U, 0xbe375a8cbcd0e3b7U,
  0x3cb798a83e0588bdU, 0x3daa28e83c9d479aU, 0xbb8c0957bd1400ccU, 0x3d9265133d332833U,
  0xbd0137afbc980a34U, 0x3b92ec62bdb3232aU, 0xbde2eb9fbdf74241U, 0xbd97305abce20c29U,
  0xbdc2ce103c317ba0U, 0xbda153a7bb3cb1d7U, 0x3ded01e5bc818998U, 0xbd58e699bb6a817cU,
  0x3d9a54963dbd1f40U, 0xbd26c942be227abeU, 0x3d6f9eafbc2df020U, 0x3e14a7dcbdd25c3eU,
  0x3dccf3ee3e1abb33U, 0xbdd2cc343d9bf15fU, 0x3dce4958bcee2e81U, 0xbd69ca633dc80330U,
  0xbd8998173ced34b2U, 0xbdf062cb3d86bba3U, 0x3d75f12bbe0879baU, 0xbdcf1c223e217a46U,
  0xbddeb4ef3dae0cf1U, 0x3c483f603d98139dU, 0xbe090adabdd4e278U, 0xbc8fc9fd3d832402U,
  0xbcab82bbbd4c5b33U, 0x3cdc9cb23da03863U, 0x3c8c65bd3c7d1378U, 0x3d8c54d13de212ccU,
  0x3d97445abde55d1cU, 0xbda2e4a1bd0bde5cU, 0xbd68f35d3d868cabU, 0x3e8a1b1fbe3eb84bU,
  0x3d018e2e3c1bf1c4U, 0xbe4010593d940c74U, 0x3d25b320be0ae402U, 0xbd72aa643c8b5023U,
  0xbd88c40dbd9071c0U, 0xbdf19adb3da5bc6dU, 0x3e224fe7be40314aU, 0xbde00d87bd9d8c20U,
  0xbbcf97ad3adfadd0U, 0x3c9989593cf2d25dU, 0xbc8eab33bdded332U, 0x3dc64dfdbdc250c0U,
  0x3c777205bdc5947aU, 0xbde0c78d3de12a48U, 0xbd03bb70bd187bc6U, 0x3c9e67dabd4c9aa8U,
  0x3db17ab33d85ae3bU, 0x3d159835bd112b9bU, 0xbe126009be3b91ceU, 0x3d94edd5bcc82830U,
  0xbdd78f1cbdf1dd32U, 0x3e00ffd0bd10803dU, 0xbe09e93b3d7698f3U, 0x3d64d923bdcd588bU,
  0x3df68bc83ce163d3U, 0xbc5cb30abe2643cfU, 0xbcf9f6f13d13d5bcU, 0x3e398de9bd1eadb4U,
  0x3e1506bcbcd2119fU, 0xbbe274b93e252817U, 0xbc77649f3da08c97U, 0xbd6ad3f43d4ef5d0U,
  0xbd974c123d735230U, 0xbd07e7213dd802eaU, 0xbdaf77c13d8465cfU, 0x3bcf816a3d2f5ab8U,
  0x3d5c51aa3db42b57U, 0xbd969fd8bdec51c3U, 0x3db7c070bc2adb2bU, 0x3cb32878bca7b596U,
  0x3e1cb550bbacd8e8U, 0x3d46fb003e056261U, 0xbdb2e9d7bdba351cU, 0xbd7a1172bd0b7fc3U,
  0xbcec86f9bc5e42aaU, 0x3cb99e2bbc131ca0U, 0xbdf0d2ebbdbf6aa8U, 0x3d33575fbe1d503fU,
  0xbdb2ee10bdf04b67U, 0x3e2534593e2667f0U, 0x3e37e5e1bbfb6ca6U, 0xbdcbd0663de95d74U,
  0x3dcc4310bdc8e83eU, 0xbd1946503e07d55cU, 0xbcf2d2453e273a34U, 0xbda0ed7ebc7e9274U,
  0x3dca3b8d3d5b73adU, 0x3cbf5396be0196dbU, 0xbb8acdce3d961910U, 0x3d5f6ce93d84376bU,
  0x3dd29acb3d98fe38U, 0xbdffc0b33cfa3621U, 0x3cfe3a06bd7bafd3U, 0xbc25b454bdc548c7U,
  0x3da90ff0bdfdd3e1U, 0x3d4c80063e09cba9U, 0x3d891a26bdcdad87U, 0x3e54200a3dc45048U,
  0x398fc0383d25dbfbU, 0x3dcceab5bd671257U, 0xbda79facbdfea74cU, 0x3d8eb71ebe69a02dU,
  0x3c687c04bce9097cU, 0x3e67ac64bdd6c177U, 0xbb05c32fbd9abe39U, 0xbd2055a3bdb72fc6U,
  0x3e05213e3d39b200U, 0xbc98eae33d2cef2dU, 0x3de4a3a03deef746U, 0x3b949beb3c535756U,
  0x3c8dc1833dad0ebfU, 0x3d80ca06be2e28ffU, 0x3c5539a4bd83e145U, 0xbbc463d4bdf31df8U,
  0xbcecdca33d558b27U, 0xbdf526493ced500cU, 0x3d5435d63c5e6d30U, 0xbdbfe59bbdda4cb7U,
  0xbdd459423c5c1ce2U, 0x3d8c42e53dbf5902U, 0xbe1c33063d8befa9U, 0xbdc5bcb4bb557d18U,
  0x3d6a6f043ddb1241U, 0xbe31b3163e01d0c7U, 0xbd77dd71bb321160U, 0x3e162d543d2f0d78U,
  0x3e1f1cac3d42fe28U, 0xbc3f7f3a3d9663b3U, 0xbdaef7473d861fd3U, 0xba3e8e6a3de871c6U,
  0x3bd3f7cf3d83ba46U, 0xbc7b592c3dabd686U, 0x3c666bab3e08bc00U, 0x3e22e3ad3db170aaU,
  0xbdb68e54bde5c224U, 0x3d77b37b3c902ad2U, 0x3dba14babc663129U, 0x3dad7c763ccc8f4eU,
  0x3dc98f3b3ca9bfa6U, 0xbd923f273dc8d3f1U, 0xbdd74820bcf27234U, 0xbd8df96d3d10cc23U,
  0x3da66176be01c523U, 0xbcd4a21b3d02730dU, 0x3e06badebcc225aeU, 0xbd819cbdbd8988f5U,
  0xbdcd55163d32054cU, 0xbe22c22d3e2b1b78U, 0xbd64828cbe305c14U, 0xbd13d78a3dc9844aU,
  0x3d6ace1c3db6be2aU, 0x3c02b1efbdea681aU, 0x3d161ed13da0c1a0U, 0xbd5d0fbebd8967b9U,
  0x3cf35d5dbcccdf69U, 0x3db420213dc56b19U, 0xbe3856423ca7f097U, 0xbe29a5a53c23c8e5U,
  0xbda42b513e5089f7U, 0xbd7acdc63d220fbbU, 0xbc9f52b8bd3c3b34U, 0xbda4f96fbd0e1befU,
  0xbde8fbafbdc92877U, 0x3d3da84ebde05c3fU, 0x3dde8a8f3dbcc1d4U, 0x3dd1c46e3cff1d6fU,
  0xbc2ae3c03d94933cU, 0xbd8304933d3f31e4U, 0xbd3351e7b80bda10U, 0xbd299b86bd2969a6U,
  0x3cebd95d3d00c630U, 0x3b69daa3badb36eaU, 0x3d77807f3d920cb9U, 0xbbc96775bddbda96U,
  0x3debd996bd4a8403U, 0x3d276b48bac2ca7cU, 0x3deaae3abc84ec75U, 0x3e322bcbbdb0cee1U,
  0x3d83666bbcdefd22U, 0xbd3a8d453d2c3eeaU, 0xbe19fd7abd2cdffcU, 0x3c79e293bafdf62cU,
  0xbc6e9c23bd9bc1abU, 0x3e0a5b6ebd797fc2U, 0x3cfcec23bd18f993U, 0xbd1d8f39bd8ecda6U,
  0x3dd9fb283ba60d93U, 0xbd87ec8d3b865481U, 0xbdc14ae3bd2f7609U, 0x3de582f63e5c8001U,
  0xbe1828eb3c10d367U, 0x3e2bca6c3d8b744cU, 0xbd2f4f87bd5d4c65U, 0x3e28ba5a3db4665dU,
  0xbd925d413d5572caU, 0x3e120abb3d74e21dU, 0x3d99eb163c753446U, 0x3e0e5adbbc448948U,
  0x3e1357bb3da42338U, 0xbd4a3fd33b90a3a4U, 0x3b9c0c0b3d8c82c8U, 0x3d85dc48bcfb3552U,
  0x3ca412b73abc7f29U, 0xbe04ba03bb340181U, 0xbd450cfa3c650b3dU, 0xbcd20a653da84e6aU,
  0xbd3d6ae23dcc88c2U, 0xbc47ae9abb860d0cU, 0x3d31bae43d1bdadfU, 0x3ddf846b3d71084dU,
  0xbdeb54163b9711ccU, 0xbde85577bd8e350bU, 0x3dbd031dbd65d0c7U, 0x3c78c177bd7a1edaU,
  0x3dadc8a7bd9a6dbfU, 0x3d609dba3d979cc1U, 0x3d8d08d4be1a95b6U, 0xbb9f65043d0d50d1U,
  0xbd5779063bf0b476U, 0x3db740febda74495U, 0xbdb2bab73dbb2dafU, 0xbcd63c473d89ef3eU,
  0xbd9c27bd3c485958U, 0xbd98cc5a3e536c8dU, 0xbc774d843ccd5581U, 0x3d80ea483d8f185bU,
  0x3de8eeacbd927e47U, 0x3d2ace473e05301bU, 0xbd8bc37ebd68589cU, 0xbd59ae8bbd9fb94aU,
  0x3e77fe78bd3fb4b1U, 0xbd8044033d6de1e7U, 0x3d95ed31bd6d74f7U, 0xbd7da3f03bd7786eU,
  0xbc4a57e33d441db5U, 0xbe014861bce5661eU, 0x3e1884f7bd3d1343U, 0xbd25d84a3c94da6dU,
  0xbdaa8a663d826c7aU, 0x3e0c52d5bcac7a32U, 0xbd82299dbd72b33aU, 0x3d1d054d3c504638U,
  0x3cc66f32baa18343U, 0xbe463c65bc9723e6U, 0x3d550d27bb2d6202U, 0x3e172a5abd399637U,
  0x3dd3e54e3c475745U, 0xbe3614933dd11d16U, 0x3ccc69bcbdb18354U, 0x3d4cdc9d3cf3049fU,
  0x3d7bc0543bbd8cdfU, 0x3deb2c18bcfb359aU, 0xbc65a6793d1c3cb6U, 0xbd556f7e3c8d365eU,
  0x3da5e2e33dc2e390U, 0xbe2482d9bd2ea36fU, 0x3d3eb4b33bbf717eU, 0xbcd298a2ba9d7c69U,
  0x3ccdd2633db9772eU, 0x3e04f1533dad662bU, 0xbe042a9c3d503262U, 0xbd842865bcc46da9U,
  0x3d860dd43da65801U, 0xbd8707063c5b9716U, 0xbbfa2dafbe02915cU, 0x3c5caec73dacc25bU,
  0x3df0ff9fbc592425U, 0x3d424a7cbe3a1258U, 0xbdc3167a3dfc355aU, 0xbd359d633d4fa9b7U,
  0x3e5084d6bd6d74ddU, 0xbd005c70ba6a0c98U, 0x3e42787cbdd43605U, 0x3bfbf176bd6b958fU,
  0xbd229a363e0b89e9U, 0xbde1dd5c3d95a8b2U, 0xbccaa2e5be7e7f18U, 0x3dbe5003bc34a260U,
  0x3e2f83f93cf3d52aU, 0xbe1184853cf595b6U, 0xbde8b651bcbfe6cdU, 0xbd2597c6bd407052U,
  0xbb45b9ad3dcd8497U, 0xbd0c86cabdf97ce0U, 0x3ca23725be0b3da8U, 0x3e0bbb0fbdac70d5U,
  0x3da63d72be1d31f6U, 0x3e17a102bcc31ea4U, 0x3dcfd886bdefb9ecU, 0xbcb9352ebd21759bU,
  0x3dc31542bd4f4c30U, 0x3d972cfa3e13c7fcU, 0x3c2830fa3ca98972U, 0xbda7997a3cdcdd42U,
  0x3deb7fb5bd7d3444U, 0xbd97bfb23e2675d4U, 0x3dd038a53d2d1affU, 0xbb66fcecbe15e43cU,
  0x3d4b6e7c3cf16b39U, 0x3e26e65e3dbb45bcU, 0xbd7f8b55be1f1b80U, 0x3d8e5992bd8d423cU,
  0x3dbef44c3c8f745fU, 0xbcd624b3bd386bddU, 0x3d9ffddd3ddef8e3U, 0x3e4021e13de51932U,
  0xb8f17ba0bdc8a58fU, 0x3d36cd2dbd152a51U, 0xbda217703c46f04aU, 0xbd77338dbd800d11U,
  0x3d4c63f8bdccff19U, 0xbe8a2a313dc24204U, 0xbd9fdbe3bd2a0ac6U, 0x3e781a9ebd4980b5U,
  0xbda81dffbe0d7b85U, 0x3d95f7183d8cb48eU, 0xbd7ab761bc76752aU, 0xbd8841c03cc4bc9bU,
  0xbd1a902abe1ef5cdU, 0x3e0f3e2f3c0912daU, 0x3d1430673d543037U, 0xbdf122233d73e881U,
  0xbd999af1bdb5961fU, 0xbd61e3b03e5da6feU, 0x3cb9e3a7bd28db93U, 0xbceae2793c9948cdU,
  0xbd3ec629bd81fec2U, 0xbe06aaf33da8998eU, 0x3d6568a4be130008U, 0x3dfe206b3913df80U,
  0x3b99618abe0f017cU, 0xbddd91423d32396aU, 0x3dd87b6f3d57ef56U, 0xbdfe34753d9ecbbfU,
  0xbbcdd678ba2b82a3U, 0xbd19933c3d903182U, 0x3cc919983c608ffdU, 0x3e1fdb113c944d41U,
  0x3e29630ebb1ee675U, 0xbc4c6f0f3d713bcaU, 0x3d4825333e34259eU, 0x3c24bab1bc7b9f22U,
  0xbc7cb7d4bbe2c28bU, 0x3da58b353cfd1fb0U, 0x3d9da86bbdf68a34U, 0xbe01a659bcbac216U,
  0xbe0ffa88bd98e2c7U, 0x3de548ecbb777cc5U, 0x3d2803f63c74c3eeU, 0x3da760b33d5117ffU,
  0x3dd708d93e007047U, 0x3d027d3a3c317605U, 0x38c16b50bd637de7U, 0x3df86a143dd3f47bU,
  0x3e3799adbd22beefU, 0xbda82e0b3db0083aU, 0x3d8ca30638e22d58U, 0xbd155cd63e9cdb07U,
  0x3cebae51bd422906U, 0xbd98d4f3bda09872U, 0xbd1a716abd8dbb06U, 0xbdbb5ab53da6a667U,
  0x3e004116b79e2160U, 0xbd921f67bca98f8aU, 0xbc7658e5bdd788a6U, 0x3d94040e3dab7729U,
  0xbcc9863fbcc04af3U, 0x3d1384ac3df2ce32U, 0xbdb40be63d884df3U, 0xbe32c945bd9534edU,
  0xbd69856d3d6b1bf8U, 0x3e0176323e15a76bU, 0x3c9c1a83bdc4aefdU, 0xbca5f0b1bdaec2e8U,
  0xbbeeb3ea3d3e3147U, 0xbd3f2c6fbe19662eU, 0xbd06ec103d740926U, 0xbca637bebd96a901U,
  0xbc7a9d7a3c712015U, 0x3dc543fbbd76f816U, 0x3d8cdbdcbb937c6cU, 0xbcbfef4cbca4ad0dU,
  0x3c1890073d6e4ddeU, 0xbe2d9d7d3b51451eU, 0x3dfab1f63dad817bU, 0x3b5adaf63c7c6306U,
  0xbcb62ca1be5c5776U, 0xbcce8955bcebfe13U, 0x3d8d7a15bdbd10ecU, 0xbdac86e13d0fba21U,
  0x3d40c0a63de1f561U, 0xbd820860bd2f9bf5U, 0xbd7b79523dcaad5fU, 0x3e1d1a613d542f1aU,
  0x3c94fad43d2db70cU, 0xbd3a89b9bd3a6dc9U, 0x3db53701bd01eba8U, 0xbd1b64df3d6dbff6U,
  0x3d99ee62be36f89dU, 0x3e0094bcbc13aa00U, 0x3ca0a75fbe06faf9U, 0xbc41a4bcbd0f8021U,
  0x3d9f3c23bd7952ceU, 0xbc8a31ecbdbe9be4U, 0x3c8cdcd7be026168U, 0xbb1e4d643c1b453cU,
  0x3db074243de6efd4U, 0xbc439cc03c1080aaU, 0xbbeba823bc9aaee0U, 0x3c235c133e7eb579U,
  0xbe22bb423d865e8aU, 0xbe1a710abd312badU, 0xbe3c58f4bddafbf9U, 0x3be645943d03c460U,
  0xbd940ce33bde2b20U, 0x3c68a520bdbc1e93U, 0x3c4856b23cba9f73U, 0x3d8613fcbe07b6d1U,
  0x3e5ede1f3dc52092U, 0x3d91b0a33d71a292U, 0x3e1d4c16be084039U, 0xbd85e45e3ce32d38U,
  0xbd7651e3bd05a618U, 0xbab769f6be54ae31U, 0x3c1a5d27be015eebU, 0x3deccb9bbca2bf7cU,
  0x3cffea883e1db76dU, 0xbbf983fd3cca5e22U, 0x3de4292cbca67e22U, 0xbcb7148c3e3161ceU,
  0xbcd052a5bd23f242U, 0xbbed3774bcd8f2efU, 0xbcc62abf3dac46a4U, 0x3bdb9e5bbdfd7d60U,
  0xbd3c6957be7c770dU, 0x3de2be0e3c641b29U, 0xbd311351be1d1364U, 0xbe861990bd94bb9bU,
  0xbdcc3bf5bda68959U, 0x3b1450243dcfdf5dU, 0xbc271bb4be04fcd3U, 0xbcf472273c4d2d3bU,
  0xbd0ac5a3bb8879b2U, 0x3cd156c5bd8c7e72U, 0xbd83675bbe6d5607U, 0xbc3698503d66fb94U,
  0x3bcccd7ebc8d0441U, 0x3b8681033d26c57fU, 0x3cb22be33a2c4af6U, 0xbd7ab8253df461f2U,
  0xbd44bacd3e0659c9U, 0xbcf380abbd997bedU, 0x3d2c1beebdcb2c47U, 0xbd29fc083c827f02U,
  0x3e671979be492e30U, 0x3e1261d73d663b56U, 0xbdce21edbd36cb0bU, 0xbc99b1f43d881ddcU,
  0x3d02fba4bd3f3524U, 0xbe01b8cabdbe5bd9U, 0x3b3627093d9c1276U, 0xbce75e79bd781db3U,
  0x3d7d9631be015a78U, 0x3cb061053dabe071U, 0xbe1ecc613e4be02dU, 0xbcd3d206bd730b57U,
  0xbe48b8a13d4a8e0cU, 0x3dd6e5423c820ffaU, 0x3d5301b6bcde5a8bU, 0xbc08bbdcbc32d182U,
  0x3d87d6413d8b09a7U, 0x3ce9e8e83d8d8c3aU, 0x3db84e76bcadd1f2U, 0x3d28341e3cd7b207U,
  0x3c9427003d241fbdU, 0xbd99eb5cbb7aed31U, 0x3d3707803b8a094dU, 0x3c5d69473ca46363U,
  0x3cb6faa73d24245bU, 0xbd5addabbcde478eU, 0xbdcea91d3b9a6411U, 0xbc2c9b6ebbb5c2ddU,
  0x3da3162d3e0522abU, 0x3c0c4fc73d23b50aU, 0x3d006a4abd93e754U, 0x3e26c703bd3c1baeU,
  0xbd8a6216be05306dU, 0xbd1999e03d8fb8e5U, 0xbe0bae463d2973f7U, 0xbe49becebcaa6fa5U,
  0x3d0f0b1bbd111bbeU, 0xbe06af40bd9494ccU, 0xbd91982b3e1134b7U, 0xbdba5f9bbba9e1c5U,
  0x3e09baef3deecda2U, 0x3c82c1483e20af35U, 0x3d3afbbf3d71be10U, 0xbd8c5b9c3c757af8U,
  0x3c7444163ca1fcb3U, 0x3d64b47d3cd5af69U, 0x3de8c41a3c2a2df6U, 0xbd6e069bbd264e93U,
  0xbbe50bfbbd32cb59U, 0xbc26bc243da12648U, 0xbd1d38c4bda4aef8U, 0x3e03d29ebcdf2cf8U,
  0x3d327d67bd9757fbU, 0xbdb5cc3d3ccb8443U, 0x3d1e832f3dab6ef4U, 0x3d43312bbdb3d4b4U,
  0x3c0087f23dfe3322U, 0x3da09d20be09c200U, 0xbd2ac316bdaac954U, 0xbbbd754dbdccc93aU,
  0x3e3286f6bda4f609U, 0xbcdea994be22b317U, 0x3d7035043d9842abU, 0x3d2b380a3a855736U,
  0xbe27b829bda83ea8U, 0xbc1a6da5bcae79fcU, 0xbdc392f83dbce056U, 0xbd09e09c3c8fec02U,
  0x3e0b1b203dc2e3b3U, 0x3dbeba56bce6c987U, 0x3c13f57b3da052e0U, 0xbd96fc92be26d8d8U,
  0xbe16ea6f3ccec17bU, 0x3dac5c38bd1c7768U, 0x3cac26c33c65a619U, 0x3dab48723e6214efU,
  0x3e730795bd72f402U, 0xbdd351783d6861a1U, 0x3ca48034bdea06baU, 0xbd67cd383d9eb7d9U,
  0xbc6c5902bcec8fc5U, 0x3d6d460a3bdf2343U, 0xbe11e2b03dc0c317U, 0xbdac05293d0522c8U,
  0x3b161a0539bb9746U, 0x3d2fc8d23dba79bdU, 0x3e59a65d3e0c0b67U, 0x3b40c4d73ba17670U,
  0xbd8a2cc3be3abcc3U, 0x3dfefb7dbe412a2aU, 0x3caebbb83d2823b5U, 0x3e4bb166bde3b2a0U,
  0xbd7e01e53d824a8eU, 0x3db06a803d48aac5U, 0x3d336c6c3c172f18U, 0x3ddd6cbf3dda7dacU,
  0xbd89a679bd9435b7U, 0x3e0b0bdfbd44eb7bU, 0xbcd536e23e04f567U, 0x3de24780bdad6a7fU,
  0xbd9d47a73cccd61bU, 0xbdbcbb03bd8a8605U, 0xbdf687bd3c8c5faeU, 0x3c332f023e0caf75U,
  0x3e16445a3d500bf5U, 0x3e24e89abd07efe6U, 0xbcdb21c63e23cc1cU, 0xbd149f6d3da62e91U,
  0xbd1c8e72be1f04ccU, 0x3d3a130dbe6e022bU, 0x3dccc14dbe2e2dd3U, 0xbb3ad8a33c068cc3U,
  0x3d7bcad63e0d113cU, 0x3ca745233dfda4b9U, 0x3df891eebd8a2c0eU, 0x3e1a6dae3d9b9469U,
  0x3d1c53823d4bed09U, 0xbdc252503d5011ceU, 0xbd1ac3993e1935d3U, 0x3e78ce383dc39ed2U,
  0x3d94a6b13d084446U, 0xbd614b94b94e7ecaU, 0x3dcc0f0b3dd16aadU, 0x3dbfd9653c417fbdU,
  0xbcf6328f3ceb32d2U, 0x3e1e0e763cfe82f5U, 0xbda0d9c03da19723U, 0xbc6a70da3d2b32e5U,
  0x3b06236b3df252ccU, 0xbcf8916a3d03e821U, 0xbdea2142be2b4556U, 0xbd313ff13e2f1f80U,
  0xbd672094bda49ed6U, 0x3d9dacd0bce29dcbU, 0xbdad3041be2cabcfU, 0x3d4786b53d6c883eU,
  0xbde230553ce6eca1U, 0xbcaada54be1d5876U, 0x3d88da253e044198U, 0xba786364bdab2581U,
  0xbcc6a886be097701U, 0x3ca5b69339936090U, 0x3c88428ebcd9d4a4U, 0xbd0489a7bd77bd7dU,
  0xbe0d8609bcb85340U, 0xbdeda9993daa647aU, 0xbcbde6643d4b645aU, 0xbd82dae2bd08544bU,
  0x3c3689703d9f85a5U, 0x3dcd23efbe9663a8U, 0x3d49f4903df8fccbU, 0x3d96f9d13de15831U,
  0x3c2eec923cd9f928U, 0x3e1692c3bd8a7c4dU, 0xbc678440be09b762U, 0x3da54cb9bda41208U,
  0xbdef9940bbbc9189U, 0xbd89e63f3d904b22U, 0xbd2d6d8d3e5f7107U, 0x3dee661ebe45ff47U,
  0x3dccddb23c9a23e7U, 0xbd82220bbd7a8629U, 0xbe73dca43dcb3c7dU, 0x3dccd7b6bd038dfaU,
  0xbe302e4a3d30cb60U, 0xbd1883413e198cbbU, 0x3d71d847bd9d84c0U, 0x3d866a9b3d0b818eU,
  0x3d9f9c4abde84f8dU, 0xbd0b8d2e3d1bf89aU, 0xbd05bd123c9e117fU, 0xbb822838bc0870b4U,
  0xbcd9c999be2226ddU, 0x0U, 0x0U, 0x0U,
  0x0U, 0x0U, 0x0U, 0x0U,
  0x0U, 0x0U, 0x0U, 0x0U,
  0x0U, 0x0U, 0x0U, 0x0U,
  0x0U, 0x0U, 0x0U, 0x0U,
  0x0U, 0x0U, 0x0U, 0x0U,
  0x0U, 0x0U, 0x0U, 0x0U,
  0x0U, 0x0U, 0x0U, 0x0U,
  0x0U, 0x0U, 0x0U, 0x0U,
  0x0U, 0x0U, 0x0U, 0x0U,
  0x0U, 0x0U, 0x0U, 0x0U,
  0x0U, 0x0U, 0x0U, 0x0U,
  0x0U, 0xbb97a6683b9cf74bU, 0x3b9e3ad13b9b523bU, 0x3ba1d146bb9850e4U,
  0xbb91912bbb977ba2U, 0xbb96d0f23b9e52eaU, 0xbb8cf16bbb97ac99U, 0xbb9686b4bb953243U,
  0xbb9904c33b9b39aaU, 0xbb967038bac0b746U, 0xbb97fb523b9bcca2U, 0x3b9b571fbb971ecaU,
  0x3b9f5489bb23aeb5U, 0xbb948a18bb955d63U, 0xbb95973a3b9c9500U, 0x3b9b8b88bb5b4251U,
  0x3b9b9944bb8e72d4U, 0x3f7ed12a3f809d40U, 0x3f809e6e3f809b7cU, 0x3f80a1f63f7ecf8eU,
  0x3f7edd773f7ed158U, 0x3f7ed2e93f809ec7U, 0x3f7ee5ef3f7ed0e1U, 0x3f7ed3643f7ed670U,
  0x3f7ecf313f809d7eU, 0x3f7ed3293f7fa6c4U, 0x3f7ed07a3f809c0fU, 0x3f809b9a3f7ed273U,
  0x3f809fa43f7f55d0U, 0x3f7ed7243f7ed58cU, 0x3f7ed5233f809cb6U, 0x3f809ba83f7f23daU,
  0x3f809bd13f7ee357U, 0x3b99fad53b9cea8fU, 0xbb9e716c3b9b6f9eU, 0xbb9adac7bb9af766U,
  0xbb967ef2bb9947e9U, 0xbb99081abb9dc964U, 0x3b93d9d0bb9a1454U, 0xbb9953813b97b906U,
  0xbb9b9510bb9ec2d8U, 0x3b9925f1bb96ffa3U, 0xbb9a2e053b9c92bbU, 0x3b9b0839bb9a9c22U,
  0x3ba06d603b0cddacU, 0xbb9a6aa73b981a0fU, 0x3b96da363b9b24e8U, 0xbb9b64a6bb979e11U,
  0x3b9c0b82bb942606U, 0xbb95ee243b9cfa20U, 0x3b9e55343b9b3fb0U, 0x3ba1e9a8bb979793U,
  0xbb916f05bb966ff1U, 0xbb9523073b9e9c83U, 0xbb8ce4d2bb9759f8U, 0xbb951d8bbb94d15eU,
  0xbb9684023b9c0780U, 0xbb968e40bac7dde2U, 0xbb97a5c83b9bacd6U, 0x3b9b9a08bb954aebU,
  0x3b9f12e9bb22a958U, 0xbb940e78bb955fb8U, 0xbb9597363b9d183fU, 0x3b9b3d8ebb5bcb06U,
  0x3b9b7859bb8e2b80U, 0x3d647b93beb66e18U, 0x3e7dd592be51e1f1U, 0x3e9437be3ebab75eU,
  0x3dd233033e87cf16U, 0xbc25bfd43e7b2fdeU, 0x3e8836163ea479dfU, 0xbe727abb3e274989U,
  0x3eb3bd62becbcea2U, 0xbe91dee0bd0896b8U, 0x3ea9deb43d9f69c9U, 0xbeb3f89d3e75a770U,
  0xbcb24bb3bec97a73U, 0x3e984f05bccac8caU, 0xbd73ab66bebf4cf5U, 0x3e6c497d3d885f26U,
  0xbea519973d8caa68U, 0x3d0325edbe21e9d6U, 0x3e6e0c763e84d04eU, 0xbea222f23d4fda74U,
  0xbd9bd333bdfd737fU, 0xbeaa3ef9be14b420U, 0x3e802d5e3a225218U, 0xbe283e3b3ed1b48eU,
  0xbe890623be9eb886U, 0x3e3e324abe2055d1U, 0x3d9fa2d33e922bd3U, 0x3eb9012fbe2709a8U,
  0x3c080707be34f099U, 0xbead9e3a3e8f721fU, 0x3e025f0f3d9dfc0dU, 0xbdc03617bdc07b66U,
  0x3e2f883f3d707fc8U,
};


ai_handle g_network_weights_table[1 + 2] = {
  AI_HANDLE_PTR(AI_MAGIC_MARKER),
  AI_HANDLE_PTR(s_network_weights_array_u64),
  AI_HANDLE_PTR(AI_MAGIC_MARKER),
};

